<unk>	0
<s>	0
</s>	0
▁là	-3.37993
▁cái	-3.95909
▁có	-4.19679
▁và	-4.23151
▁mình	-4.25424
▁của	-4.28608
▁một	-4.32558
▁thì	-4.34146
▁không	-4.44875
▁mà	-4.45402
▁người	-4.47407
▁đó	-4.53436
▁em	-4.53573
▁những	-4.54401
▁ta	-4.62338
▁nó	-4.77656
▁được	-4.8495
▁chúng	-4.87159
▁trong	-4.87686
▁cho	-4.92768
▁sẽ	-4.94141
▁như	-4.95874
▁cũng	-5.04494
▁với	-5.04595
▁về	-5.07075
▁này	-5.07263
▁để	-5.16005
▁đã	-5.21289
▁các	-5.22211
▁ở	-5.24052
▁làm	-5.25562
▁phải	-5.29669
▁ra	-5.31593
▁thể	-5.33655
▁rất	-5.33737
▁nói	-5.36663
▁gì	-5.37032
▁thấy	-5.37089
▁đi	-5.38491
▁con	-5.38558
▁đến	-5.3951
▁khi	-5.3994
▁nhưng	-5.44015
▁thế	-5.4429
▁lại	-5.45832
▁bạn	-5.52081
▁tôi	-5.54947
▁nào	-5.59376
▁sự	-5.61157
▁rồi	-5.63532
▁anh	-5.64508
▁vì	-5.669
▁thứ	-5.70873
▁nhiều	-5.71004
▁câu	-5.71906
▁từ	-5.72005
▁đây	-5.72468
▁vậy	-5.75022
▁văn	-5.76019
▁chuyện	-5.77557
▁cô	-5.79436
▁ông	-5.83086
▁chính	-5.84106
▁cảm	-5.84434
▁biết	-5.87708
▁chị	-5.88937
▁bài	-5.90335
▁đầu	-5.91107
▁hay	-5.92
▁nghĩ	-5.93173
▁thơ	-5.95819
▁việc	-5.97876
▁đấy	-5.99128
▁bản	-5.99454
▁còn	-6.01058
▁giờ	-6.01646
▁họ	-6.01853
▁tác	-6.02613
▁hiểu	-6.03696
▁cùng	-6.05564
▁học	-6.05576
▁cả	-6.06784
▁phần	-6.08501
▁vào	-6.08827
▁chỉ	-6.09241
▁đúng	-6.12044
▁sau	-6.12764
▁hình	-6.1428
▁cách	-6.14893
▁nhất	-6.16131
▁sống	-6.16595
▁đọc	-6.16609
▁nhân	-6.19422
▁lúc	-6.20456
▁tìm	-6.217
▁ngày	-6.21985
▁hơn	-6.23851
▁hiện	-6.24323
▁giả	-6.247
▁quan	-6.24737
▁khác	-6.24926
▁ý	-6.25524
▁theo	-6.26878
▁mọi	-6.28063
▁lời	-6.28415
▁muốn	-6.28579
▁mới	-6.28744
▁thời	-6.30386
▁công	-6.3063
▁nên	-6.30885
▁sao	-6.32193
▁thành	-6.33172
▁nhà	-6.33236
▁hai	-6.35816
▁tình	-6.36577
▁tại	-6.37472
▁nếu	-6.37626
▁trước	-6.38479
▁cuộc	-6.39339
▁lên	-6.40173
▁rằng	-6.41161
▁nhận	-6.41161
▁điều	-6.41722
▁qua	-6.44961
▁bây	-6.45214
▁yêu	-6.4527
▁tự	-6.46041
▁trên	-6.46415
▁thôi	-6.48832
▁nhau	-6.48921
▁nước	-6.48976
▁năm	-6.49409
▁động	-6.49803
▁luôn	-6.50867
▁ảnh	-6.53487
▁hỏi	-6.5525
▁đang	-6.55687
▁vật	-6.56734
▁ấy	-6.56984
▁bị	-6.58329
▁tiếp	-6.59449
▁nữa	-6.59457
▁tâm	-6.61519
▁vẫn	-6.63199
▁sách	-6.63866
▁nghĩa	-6.63982
▁thực	-6.64875
▁điểm	-6.65044
▁hành	-6.6559
▁hết	-6.67096
▁2	-6.67533
▁nhìn	-6.69296
▁đời	-6.69367
▁đồng	-6.69521
▁cần	-6.69792
▁quá	-6.70209
▁đề	-6.70962
▁thích	-6.72017
▁mẹ	-6.7202
▁nhiên	-6.72636
▁bởi	-6.72819
▁số	-6.73385
▁nghe	-6.74441
▁định	-6.74478
▁tất	-6.7459
▁đối	-6.75489
▁gian	-6.77518
▁ai	-6.77912
▁tiên	-6.78192
▁chúa	-6.78556
▁viết	-6.79279
▁thân	-6.79905
▁đoạn	-6.80101
▁tiếng	-6.8318
▁dân	-6.83818
▁lý	-6.84352
▁bằng	-6.85145
▁xem	-6.87372
▁thật	-6.87617
▁trình	-6.87915
▁tin	-6.88206
▁bắt	-6.88555
▁đâu	-6.88811
▁gia	-6.89709
▁kể	-6.8976
▁nam	-6.90232
▁thức	-6.90493
▁kết	-6.90854
▁nay	-6.91245
▁bà	-6.9128
▁phẩm	-6.92618
▁tới	-6.93156
▁lần	-6.93874
▁bao	-6.94763
▁dung	-6.95431
▁kiểu	-6.95927
▁đất	-6.96112
▁tập	-6.97366
▁đẹp	-6.97882
▁gọi	-6.97882
▁sáng	-6.98072
▁chưa	-7.00453
▁trở	-7.00598
▁hôm	-7.02452
▁nội	-7.02994
▁dụ	-7.0323
▁nhớ	-7.03271
▁cứ	-7.03932
▁việt	-7.04287
▁bình	-7.04338
▁hãy	-7.04388
▁3	-7.04644
▁trọng	-7.04791
▁sinh	-7.05194
▁bên	-7.05804
▁thường	-7.06159
▁mặt	-7.06415
▁sử	-7.07101
▁lớn	-7.07495
▁nghệ	-7.07547
▁đặc	-7.08693
▁chứ	-7.08713
▁cảnh	-7.08781
▁thương	-7.08902
▁thiên	-7.08944
▁1	-7.09221
▁dụng	-7.09269
▁tính	-7.10439
▁giáo	-7.11092
▁giống	-7.11454
▁xong	-7.11886
▁đường	-7.12591
▁hội	-7.1508
▁tức	-7.16082
▁chú	-7.16253
▁khó	-7.16733
▁vừa	-7.16874
▁à	-7.17196
▁mỗi	-7.17272
▁chương	-7.17272
▁hoặc	-7.18132
▁bộ	-7.18499
▁tốt	-7.19241
▁cuối	-7.19874
▁thông	-7.19876
▁biệt	-7.20226
▁vấn	-7.20461
▁do	-7.20613
▁cao	-7.2065
▁bé	-7.20907
▁giới	-7.2123
▁trường	-7.21825
▁chắc	-7.22304
▁gặp	-7.23087
▁hát	-7.23694
▁lắm	-7.23938
▁chia	-7.23958
▁lòng	-7.24307
▁trẻ	-7.25024
▁đều	-7.25434
▁suy	-7.26234
▁hợp	-7.26783
▁dẫn	-7.27413
▁thần	-7.27539
▁thầy	-7.28174
▁ví	-7.28741
▁tạo	-7.29006
▁vô	-7.30188
▁nhỏ	-7.30296
▁ba	-7.30576
▁thuật	-7.30622
▁toàn	-7.30817
▁phương	-7.31079
▁ăn	-7.31342
▁ngoài	-7.31934
▁bố	-7.32163
▁tưởng	-7.32864
▁giải	-7.3313
▁trời	-7.33265
▁giá	-7.33479
▁xúc	-7.33667
▁rõ	-7.3476
▁năng	-7.35021
▁chủ	-7.35108
▁tinh	-7.35375
▁sang	-7.35711
▁tượng	-7.35842
▁mang	-7.36605
▁chí	-7.36689
▁minh	-7.37365
▁đổi	-7.37512
▁nơi	-7.37575
▁trung	-7.37645
▁trả	-7.37724
▁thánh	-7.38065
▁giác	-7.38702
▁thay	-7.38705
▁hệ	-7.39452
▁diễn	-7.39622
▁vị	-7.3996
▁lấy	-7.40052
▁hoàn	-7.40319
▁chân	-7.40339
▁giữa	-7.40352
▁từng	-7.40383
▁chi	-7.40711
▁chung	-7.41354
▁đại	-7.41424
▁bảo	-7.41568
▁sĩ	-7.42226
▁đưa	-7.42591
▁ngữ	-7.42592
▁đình	-7.42665
▁hồi	-7.42683
▁vui	-7.43256
▁sức	-7.43261
▁đức	-7.43329
▁kỳ	-7.43774
▁xuất	-7.44596
▁chọn	-7.4511
▁cha	-7.45997
▁tiết	-7.47102
▁thanh	-7.47492
▁tên	-7.47642
▁phát	-7.49221
▁ngay	-7.49438
▁chữ	-7.49744
▁hóa	-7.50783
▁tài	-7.51185
▁kinh	-7.51423
▁trang	-7.51508
▁mạnh	-7.51665
▁độ	-7.51736
▁xin	-7.5279
▁chuyển	-7.53042
▁tích	-7.5337
▁tuổi	-7.5502
▁chất	-7.5502
▁xa	-7.55149
▁bất	-7.55188
▁kia	-7.55521
▁giúp	-7.55771
▁cuốn	-7.55941
▁chiến	-7.56278
▁mùa	-7.57295
▁liên	-7.57366
▁khổ	-7.57756
▁bỏ	-7.58186
▁bước	-7.58494
▁pháp	-7.58499
▁hàng	-7.60345
▁xuân	-7.61199
▁phim	-7.61563
▁hơi	-7.61643
▁trò	-7.61783
▁tư	-7.61924
▁nhạc	-7.62093
▁ca	-7.6235
▁cố	-7.62704
▁thái	-7.64074
▁nguyễn	-7.64164
▁vẻ	-7.64511
▁mấy	-7.64714
▁cầu	-7.6545
▁ký	-7.65634
▁trị	-7.65801
▁video	-7.66005
▁cơ	-7.66307
▁thêm	-7.66471
▁đôi	-7.67039
▁dễ	-7.67126
▁xưa	-7.67126
▁lập	-7.67503
▁quyết	-7.67598
▁đánh	-7.67981
▁hương	-7.6826
▁lực	-7.68355
▁khoa	-7.68496
▁thu	-7.68501
▁tranh	-7.68547
▁chẳng	-7.68641
ng	-7.69467
▁vua	-7.69504
i	-7.69883
▁tả	-7.69986
▁tiền	-7.70082
▁dù	-7.70532
▁tử	-7.70643
▁sẻ	-7.71152
▁-	-7.7126
▁đặt	-7.71544
▁4	-7.71628
▁bác	-7.72227
▁phúc	-7.72731
▁ngồi	-7.72928
▁kênh	-7.7303
▁hoa	-7.73275
▁biểu	-7.7423
▁nữ	-7.74408
▁khoảng	-7.74635
▁tay	-7.74694
▁sợ	-7.74695
▁mất	-7.75347
▁hướng	-7.75448
▁sắc	-7.75755
▁dùng	-7.76011
▁viên	-7.76268
▁phá	-7.76725
▁gần	-7.76784
▁chỗ	-7.76888
▁hạnh	-7.77208
▁tế	-7.77285
▁kiến	-7.77303
▁luận	-7.77511
▁mắt	-7.77826
▁đơn	-7.78034
▁	-7.78239
▁a	-7.79114
▁nghiệm	-7.79193
▁loại	-7.79405
▁chơi	-7.80152
▁phụ	-7.80305
▁nhắc	-7.80366
▁mở	-7.8058
▁chết	-7.81563
▁dòng	-7.81771
▁chút	-7.81822
▁truyền	-7.81987
▁âm	-7.82644
▁quay	-7.82834
▁đủ	-7.82863
▁b	-7.82915
▁quả	-7.83571
▁nha	-7.84419
▁càng	-7.84546
▁quốc	-7.8475
▁trái	-7.84975
▁phân	-7.85086
▁xã	-7.85311
▁xác	-7.85982
▁gái	-7.86788
m	-7.86895
▁xuống	-7.87476
▁khiến	-7.87838
▁sông	-7.8794
▁5	-7.88045
▁tháng	-7.8817
▁phong	-7.88401
▁trải	-7.88592
▁trí	-7.88748
▁tiêu	-7.88985
▁dưới	-7.89687
▁đăng	-7.89805
▁riêng	-7.9016
▁đứa	-7.90515
▁mong	-7.90636
▁báo	-7.90995
▁yếu	-7.91349
▁ngài	-7.91831
▁nổi	-7.91956
▁tương	-7.92191
▁hoàng	-7.92453
▁sâu	-7.93283
▁cụ	-7.93285
▁hồn	-7.94152
▁đạo	-7.94512
▁sát	-7.94513
▁cây	-7.95006
▁mặc	-7.9513
▁trạng	-7.95255
▁bảng	-7.95462
▁cực	-7.96256
▁quê	-7.96851
▁biến	-7.97033
▁khắc	-7.97393
▁tục	-7.97395
▁uống	-7.97776
▁đứng	-7.98287
▁ước	-7.98807
▁lâu	-7.9906
▁buồn	-7.99307
▁lẽ	-7.9969
▁vọng	-7.99969
▁thi	-8.00093
▁giữ	-8.00206
▁chứng	-8.00351
▁ơn	-8.00921
▁bức	-8.01152
▁mối	-8.02079
▁đừng	-8.02345
▁sản	-8.02459
▁dài	-8.02479
▁nỗi	-8.02623
▁mục	-8.02882
▁ít	-8.02884
▁lịch	-8.03555
▁nguyên	-8.03826
▁dành	-8.0437
▁quân	-8.04643
n	-8.04766
▁gợi	-8.0478
▁đồ	-8.05063
▁so	-8.05448
▁tổng	-8.06336
▁cười	-8.06575
▁ngôn	-8.06989
▁lễ	-8.07415
▁thuộc	-8.07697
▁cậu	-8.08546
▁nhé	-8.08555
▁chào	-8.0869
▁giao	-8.09317
▁mạng	-8.09406
▁niềm	-8.09833
▁quen	-8.09835
▁coi	-8.10126
▁đau	-8.10418
▁màu	-8.11042
▁chịu	-8.11546
▁12	-8.11597
▁đàn	-8.1186
▁cá	-8.11983
▁triển	-8.12016
▁thiết	-8.12166
▁nét	-8.12166
▁hiệu	-8.12459
▁ràng	-8.12608
▁lớp	-8.12904
▁nghiệp	-8.1335
▁lưu	-8.14099
▁đầy	-8.14249
▁độc	-8.1427
▁tộc	-8.14399
▁dịch	-8.14553
▁sứ	-8.15346
▁cổ	-8.15667
▁án	-8.15669
▁an	-8.15822
▁chắn	-8.16071
▁khán	-8.16084
▁lo	-8.16328
▁đáng	-8.16411
t	-8.16481
▁diện	-8.16687
▁phía	-8.16693
▁vũ	-8.16947
▁khăn	-8.17481
▁kỹ	-8.17771
▁lượng	-8.17772
▁chiều	-8.1824
▁á	-8.19124
▁mỹ	-8.19501
▁cộng	-8.20779
▁phục	-8.20795
▁cứu	-8.21301
▁khá	-8.21365
▁nhiêu	-8.21586
▁tham	-8.2177
▁thử	-8.22079
▁hạn	-8.22557
▁nghề	-8.22725
▁tố	-8.2305
▁dấu	-8.23054
▁vợ	-8.23178
▁khám	-8.23254
▁dự	-8.24125
▁mời	-8.24217
▁dựng	-8.24424
▁hà	-8.24682
▁khách	-8.2494
▁ơi	-8.25049
▁hòa	-8.25553
▁thoại	-8.25717
▁thống	-8.25887
▁xe	-8.26008
▁áp	-8.26066
▁sơn	-8.2624
▁6	-8.26903
▁chim	-8.26992
▁hưởng	-8.27248
▁nhờ	-8.27248
▁niệm	-8.2742
a	-8.28071
▁danh	-8.28115
▁quyền	-8.28282
▁vụ	-8.28589
▁cạnh	-8.29326
▁xanh	-8.29879
▁đêm	-8.3003
▁buổi	-8.30204
▁quý	-8.30353
▁thú	-8.30423
▁cháu	-8.30736
▁giản	-8.31172
▁khái	-8.31319
▁xây	-8.31448
▁áo	-8.31655
▁đạt	-8.31988
▁10	-8.32024
▁ty	-8.32124
▁nhiệm	-8.32166
▁nhỉ	-8.32346
▁ngôi	-8.32358
▁vai	-8.32712
▁tổ	-8.32988
▁lạ	-8.33059
▁xét	-8.33073
▁biển	-8.33434
▁hùng	-8.33435
▁ánh	-8.34191
▁7	-8.34265
▁ngắn	-8.34352
▁hồ	-8.34406
▁vài	-8.34568
▁dạy	-8.34732
▁linh	-8.34903
▁thư	-8.35322
▁lắng	-8.35459
▁gắng	-8.35655
▁ok	-8.35858
▁sai	-8.36114
▁rộng	-8.3621
▁hấp	-8.36394
▁giai	-8.36402
▁phép	-8.37148
▁tắc	-8.37338
▁nằm	-8.37718
▁hy	-8.38105
▁đông	-8.38881
▁dần	-8.39445
▁chạy	-8.39638
▁núi	-8.39639
▁miêu	-8.40029
▁phê	-8.40029
▁cáo	-8.40442
▁mơ	-8.41414
▁ứng	-8.41599
▁thị	-8.41723
▁kẻ	-8.42002
▁duy	-8.42497
▁bàn	-8.42526
▁lựa	-8.42792
▁nè	-8.42812
▁ạ	-8.42814
▁tuy	-8.43035
▁thiệu	-8.43394
▁quanh	-8.43557
▁dạng	-8.4424
▁tội	-8.4461
▁mây	-8.45224
y	-8.45239
▁c	-8.45364
▁khỏi	-8.45429
▁mừng	-8.45841
▁phản	-8.45842
▁ban	-8.46
▁mê	-8.46085
▁nàng	-8.46465
▁bọn	-8.47284
▁hoạt	-8.47508
▁nền	-8.47511
▁họa	-8.47579
▁v	-8.47595
▁địa	-8.47716
▁nối	-8.47717
▁khí	-8.48279
▁sở	-8.48561
▁thúc	-8.48574
▁khả	-8.48671
▁trần	-8.48986
▁vẽ	-8.48986
▁cục	-8.49006
▁thiếu	-8.49412
▁sóng	-8.49627
▁chuẩn	-8.49841
▁trai	-8.49928
▁nguồn	-8.50704
▁chồng	-8.50705
▁gió	-8.50839
▁cấp	-8.51139
▁trăng	-8.5114
▁tỉnh	-8.5114
▁ghi	-8.51227
▁lửa	-8.51576
▁đem	-8.51579
▁chức	-8.51841
▁gắn	-8.52001
▁thuyết	-8.52674
▁kiện	-8.52674
▁liệu	-8.52674
▁loài	-8.52896
▁sân	-8.52896
▁lạc	-8.52901
▁bay	-8.52967
▁tôn	-8.53125
▁mua	-8.53342
▁bán	-8.53553
▁vân	-8.54222
▁may	-8.54246
▁8	-8.54369
▁mẫu	-8.54683
▁thậm	-8.54683
▁thờ	-8.54863
▁đá	-8.55202
▁tối	-8.55424
▁lá	-8.55879
▁tiến	-8.56492
▁che	-8.56605
▁vàng	-8.56624
▁nhanh	-8.56763
▁lao	-8.56978
o	-8.57132
▁xảy	-8.57429
▁sánh	-8.57892
▁gửi	-8.58123
▁điệu	-8.58123
▁kịch	-8.58123
▁nhóm	-8.58358
▁giọng	-8.58826
▁đa	-8.59094
▁s	-8.59222
▁thẳng	-8.59297
▁ẩn	-8.59303
▁n	-8.59478
▁du	-8.59634
▁dõi	-8.60246
▁phòng	-8.60246
▁cửa	-8.60258
▁thủ	-8.60424
▁thắng	-8.60485
▁nguyện	-8.60964
▁mãi	-8.61723
▁khen	-8.62418
▁hào	-8.62685
▁làng	-8.62821
▁đích	-8.62904
▁hồng	-8.62991
▁quy	-8.63393
▁mái	-8.63902
▁đợi	-8.64135
▁kế	-8.64355
▁cánh	-8.64405
▁m	-8.64575
▁kỷ	-8.64631
▁ngoại	-8.64631
▁góc	-8.64632
▁tha	-8.64855
▁vượt	-8.64882
▁luật	-8.65633
▁phù	-8.66086
▁ngược	-8.66137
▁trách	-8.66138
▁giỏi	-8.66138
▁xung	-8.66151
▁khẳng	-8.66644
▁tấm	-8.66645
▁ấn	-8.6716
▁huy	-8.67726
▁xử	-8.6821
▁môi	-8.68212
▁liền	-8.68698
▁bày	-8.68819
▁vương	-8.6896
▁bắc	-8.68961
▁hẳn	-8.6955
▁to	-8.69692
▁lỗi	-8.70016
▁9	-8.70036
▁mai	-8.70279
▁sắp	-8.70533
▁cà	-8.70611
▁mày	-8.70649
▁điện	-8.70804
▁giang	-8.71172
▁vùng	-8.7133
▁tận	-8.7133
▁dạ	-8.72276
▁lợi	-8.72668
▁lệ	-8.732
▁đỏ	-8.73209
▁lê	-8.73427
▁trực	-8.73752
▁châu	-8.73753
▁đảo	-8.73753
▁thủy	-8.73776
▁cầm	-8.74301
▁y	-8.74307
▁quên	-8.74374
▁nêu	-8.74576
▁sư	-8.74865
▁hẹn	-8.75126
▁ngại	-8.75128
▁đáp	-8.75137
▁tụi	-8.75138
▁môn	-8.75417
▁kiếm	-8.75681
▁khóc	-8.75736
▁la	-8.75915
▁kêu	-8.75966
▁bóng	-8.75994
▁sẵn	-8.76239
▁nghị	-8.76476
▁vệ	-8.76884
▁đoàn	-8.77082
▁show	-8.77082
▁đội	-8.7724
▁quát	-8.77298
▁phận	-8.77365
▁d	-8.77471
▁điệp	-8.77649
▁dựa	-8.77689
▁phố	-8.77871
▁đóng	-8.78272
▁quang	-8.78578
▁trưởng	-8.78789
▁chế	-8.78792
▁nhật	-8.79365
▁hài	-8.79731
▁hứng	-8.79945
▁chấp	-8.80234
▁nhẹ	-8.80522
▁miền	-8.80525
▁đấu	-8.80526
▁suốt	-8.80526
▁mức	-8.80527
▁.	-8.80755
▁lặng	-8.80819
▁yên	-8.80822
▁t	-8.80981
▁chờ	-8.81028
▁14	-8.81301
▁bệnh	-8.81701
▁chống	-8.81996
▁liệt	-8.82292
▁kiều	-8.8259
▁nuôi	-8.83188
▁dị	-8.83814
▁chúc	-8.8385
▁tây	-8.84092
▁biện	-8.84095
▁hậu	-8.85004
▁mưa	-8.85004
▁mã	-8.85006
▁hộ	-8.85466
▁bè	-8.85571
▁rút	-8.85618
▁hôn	-8.85927
▁tỏ	-8.86217
▁khỏe	-8.86232
▁bạc	-8.86536
▁đỡ	-8.86804
▁gây	-8.86853
▁hữu	-8.87476
▁tí	-8.87637
▁nặng	-8.87791
▁tầm	-8.87791
▁món	-8.88095
▁in	-8.88103
▁chuyên	-8.88105
▁dậy	-8.88105
▁xấu	-8.88106
▁thất	-8.88422
▁vinh	-8.88431
▁ngủ	-8.8865
▁lai	-8.89106
▁bí	-8.89275
▁phỏng	-8.89373
▁tu	-8.89688
▁khởi	-8.89692
nh	-8.89961
▁20	-8.9026
▁tuyệt	-8.90335
▁khoảnh	-8.90658
▁nghi	-8.91243
▁ngờ	-8.91258
▁luyện	-8.91305
▁rừng	-8.91631
▁lính	-8.91958
▁thiện	-8.91959
▁phủ	-8.91964
▁kém	-8.92285
▁chàng	-8.92303
▁niên	-8.92323
▁chăm	-8.92615
▁lộ	-8.92775
▁cũ	-8.92902
▁tuần	-8.92945
▁nghèo	-8.92945
▁phạm	-8.92947
▁kính	-8.92948
▁l	-8.93128
▁tiểu	-8.93275
▁khấu	-8.93276
▁khát	-8.93332
▁hải	-8.93644
▁chiếc	-8.93942
▁dàng	-8.93943
▁tim	-8.94168
▁góp	-8.94276
▁vòng	-8.9428
▁hổ	-8.94966
▁đền	-8.95231
▁bút	-8.95293
▁máy	-8.95634
▁cân	-8.95685
g	-8.957
▁xứ	-8.9601
▁kéo	-8.97338
▁tướng	-8.97339
▁nh	-8.97596
▁nhịp	-8.97685
▁lối	-8.97688
▁giàu	-8.97693
u	-8.97725
▁x	-8.97818
▁phi	-8.98168
▁hạ	-8.98564
▁sớm	-8.9873
xu	-8.98833
▁diệu	-8.9908
▁mến	-8.99081
▁phút	-8.99453
▁dừng	-9.00139
▁tươi	-9.00855
▁khúc	-9.01211
▁thoải	-9.01213
▁khai	-9.01214
▁nắm	-9.0157
▁dám	-9.01571
▁vận	-9.01576
▁chích	-9.01601
▁xíu	-9.01933
▁tuấn	-9.02659
▁da	-9.02855
▁giê	-9.03035
▁vi	-9.03043
▁khu	-9.03222
▁ấm	-9.03761
▁trắng	-9.04125
▁nắng	-9.04125
▁xếp	-9.04497
▁nãy	-9.04497
▁tồn	-9.04734
▁lượt	-9.04868
▁tuân	-9.04868
▁bật	-9.04871
▁ích	-9.04873
▁mô	-9.05488
▁trương	-9.05615
▁cơm	-9.05762
▁hoài	-9.05994
▁ngành	-9.05999
▁quảng	-9.06545
▁lan	-9.06656
▁huống	-9.07127
▁cung	-9.07132
▁sơ	-9.07459
▁trận	-9.07511
▁quản	-9.0756
▁trông	-9.08279
▁hoang	-9.08466
v	-9.08619
▁thách	-9.08667
▁đổ	-9.08894
c	-9.09616
▁tô	-9.0967
▁thuyền	-9.0983
▁đương	-9.0983
▁lạnh	-9.09858
▁thưa	-9.09881
▁đoán	-9.10223
▁tàn	-9.10364
▁nông	-9.10631
▁lược	-9.11012
▁mùi	-9.11033
▁hề	-9.11037
▁nho	-9.11278
▁bó	-9.11749
▁tắt	-9.11812
▁nghỉ	-9.12221
▁vần	-9.12598
▁hiểm	-9.12608
▁tĩnh	-9.12608
▁trưng	-9.12609
▁ng	-9.12801
▁già	-9.12964
▁trích	-9.13032
▁thí	-9.13349
▁thạch	-9.13417
▁ngục	-9.14235
▁ngang	-9.14262
▁hả	-9.14474
▁di	-9.14888
▁giảm	-9.14893
▁nhập	-9.15466
▁đáo	-9.15498
▁lành	-9.15675
▁non	-9.15907
▁dục	-9.15976
▁thù	-9.16219
▁triệu	-9.16716
▁lãnh	-9.16718
▁trao	-9.16723
▁trụ	-9.16961
▁đón	-9.17848
▁tù	-9.17888
▁bờ	-9.17936
▁ổn	-9.17987
▁giám	-9.18212
▁rời	-9.18407
▁trăm	-9.18408
▁lương	-9.18409
▁nguy	-9.18633
▁cấu	-9.18839
▁nhu	-9.19065
▁mắn	-9.19253
▁tăng	-9.19265
▁sàng	-9.19695
▁phú	-9.20352
▁bữa	-9.20562
▁chậm	-9.20563
▁gốc	-9.20563
▁nhấn	-9.20565
▁tao	-9.20567
▁say	-9.2058
▁ly	-9.20596
▁thưởng	-9.20999
▁lỡ	-9.21001
▁nửa	-9.21001
▁rơi	-9.21002
▁kháng	-9.21163
p	-9.2156
▁thằng	-9.21878
▁lĩnh	-9.21879
▁tránh	-9.2188
▁ác	-9.21903
▁quần	-9.22307
▁rượu	-9.22321
▁mắc	-9.22322
▁nghiên	-9.22754
▁trúc	-9.22768
▁đen	-9.22774
▁quán	-9.23537
▁gồm	-9.2366
▁hắn	-9.2366
▁bánh	-9.23685
▁r	-9.23778
▁hiến	-9.24117
▁tóc	-9.24565
▁chữa	-9.24702
▁tặng	-9.25018
▁tóm	-9.25018
▁giết	-9.2502
▁đòi	-9.25027
▁ức	-9.25484
▁trợ	-9.25526
▁mò	-9.25915
▁mẽ	-9.25933
▁cận	-9.2594
▁truyện	-9.26393
▁đỉnh	-9.26393
▁lục	-9.26395
▁bông	-9.26405
▁mì	-9.26412
▁cốt	-9.26537
▁huấn	-9.26856
▁vực	-9.27322
▁vững	-9.27326
▁bếp	-9.27329
▁khứ	-9.27962
▁bối	-9.28112
▁phán	-9.28203
▁nhảy	-9.28262
▁bầu	-9.28265
▁hút	-9.28267
▁cãi	-9.28731
▁mệt	-9.28732
▁dao	-9.28753
▁huế	-9.29207
▁tò	-9.2963
▁sương	-9.29682
▁hàn	-9.30238
▁lam	-9.30337
▁sửa	-9.30388
▁vả	-9.30443
▁đà	-9.30443
▁ô	-9.30479
▁ngàn	-9.30626
▁tan	-9.30643
▁have	-9.30653
▁điển	-9.30668
▁khủng	-9.31123
▁tùy	-9.31145
▁nhàng	-9.31598
▁phèo	-9.31608
▁băng	-9.31616
▁mạch	-9.31616
▁gỡ	-9.32097
▁tràng	-9.32137
▁đám	-9.32174
▁hiếu	-9.32586
▁thổ	-9.3304
▁vang	-9.33091
▁dế	-9.33143
▁khung	-9.33144
▁đẩy	-9.33574
▁cư	-9.33655
▁cập	-9.34075
▁long	-9.35236
▁lũ	-9.35541
▁giặc	-9.35579
▁thở	-9.35579
▁ghét	-9.35583
▁hại	-9.35644
▁đuổi	-9.36086
▁tiện	-9.36088
▁kim	-9.36093
▁khuyên	-9.36597
▁biên	-9.36597
▁vốn	-9.36598
▁thăm	-9.3711
▁duyên	-9.37113
▁hầu	-9.37626
▁trào	-9.37638
▁kiểm	-9.38142
▁hối	-9.38152
▁dũng	-9.38668
▁bại	-9.38672
▁thoát	-9.38672
▁thói	-9.39191
▁chả	-9.39707
▁thượng	-9.39714
▁hiền	-9.39714
▁đậm	-9.39714
▁siêu	-9.39718
▁vất	-9.39719
▁ngọn	-9.39759
▁chặt	-9.40243
▁ôm	-9.40283
▁chối	-9.40775
▁hoạch	-9.40775
▁nương	-9.40777
▁cắt	-9.40784
▁nhá	-9.40906
▁cỏ	-9.4123
▁đào	-9.41329
▁30	-9.41576
▁quà	-9.41742
▁vâng	-9.41876
▁lái	-9.41956
▁chuyến	-9.42388
▁bom	-9.4239
▁vỡ	-9.42392
▁âu	-9.42397
▁phí	-9.42398
▁g	-9.42576
▁tảng	-9.42661
▁ngươi	-9.42932
▁viện	-9.42935
▁dịp	-9.43494
▁19	-9.43561
h	-9.43812
▁đói	-9.44412
▁doanh	-9.44587
▁ủng	-9.44592
▁mát	-9.44602
▁mạc	-9.4513
▁triều	-9.45135
▁chứa	-9.45394
▁đế	-9.45414
▁dầu	-9.45697
▁phóng	-9.45728
▁sip	-9.45816
▁sài	-9.46256
▁lọc	-9.46257
▁giận	-9.46823
s	-9.46831
▁dữ	-9.46845
▁nhan	-9.46979
▁tròn	-9.47019
▁kê	-9.47363
▁dây	-9.4739
▁dương	-9.47962
▁trân	-9.47985
▁tỏa	-9.48005
▁cử	-9.48426
▁thấu	-9.48536
▁vời	-9.48549
▁ôi	-9.4859
▁tết	-9.4869
▁nhắn	-9.49114
▁phiên	-9.49114
▁tạm	-9.49131
▁căn	-9.49683
▁ngạc	-9.49687
▁lẫn	-9.49695
▁thùy	-9.49722
▁ngợi	-9.50281
▁mật	-9.50282
▁hạt	-9.50326
▁vườn	-9.50867
▁sen	-9.51377
▁sa	-9.51418
▁ân	-9.51422
▁buộc	-9.51468
▁gõ	-9.52007
▁nỗ	-9.52009
▁israel	-9.52021
▁trì	-9.52026
▁xuyên	-9.52056
▁lầm	-9.52056
▁đảm	-9.52057
▁bi	-9.52526
▁nghiêm	-9.52654
▁tái	-9.52679
▁chạm	-9.53255
▁đẳng	-9.53256
▁châm	-9.53256
▁vội	-9.53259
▁mông	-9.53363
▁100	-9.53452
▁rap	-9.53671
▁gương	-9.53862
▁dường	-9.53867
▁nấu	-9.54477
▁ảo	-9.54479
▁vĩ	-9.54536
▁dĩ	-9.54841
▁đập	-9.55085
▁ngọt	-9.55086
▁ưu	-9.55094
▁hang	-9.55106
▁thả	-9.55121
▁tín	-9.55144
▁toán	-9.55193
▁cơn	-9.55313
▁podcast	-9.55697
▁miệng	-9.55702
▁gòn	-9.55715
▁mệnh	-9.56323
▁căng	-9.56339
▁dưng	-9.56343
▁chảy	-9.56348
▁mộng	-9.5637
▁trốn	-9.56937
▁loạt	-9.56954
▁san	-9.57331
▁comment	-9.57578
▁mèo	-9.5758
▁tàu	-9.57581
▁chiếm	-9.58217
▁tháp	-9.58847
▁thừa	-9.58847
▁ngọc	-9.58847
▁khắp	-9.58848
▁cam	-9.59246
▁đô	-9.59357
▁đằng	-9.59488
▁chấm	-9.59489
▁sóc	-9.59491
▁tân	-9.59564
▁nga	-9.59914
▁khói	-9.60002
▁chán	-9.60127
▁quỷ	-9.60133
▁nâng	-9.60134
▁hứa	-9.60136
▁chiếu	-9.60783
▁trùng	-9.60789
▁mộ	-9.6134
▁tr	-9.61394
▁chụp	-9.61439
▁giảng	-9.61585
▁11	-9.61601
▁15	-9.61687
▁clip	-9.62093
▁kích	-9.62095
▁phổ	-9.621
▁ngô	-9.6263
▁sướng	-9.62761
▁khôn	-9.62772
▁hàm	-9.62901
▁huyện	-9.63423
▁mũi	-9.63462
▁su	-9.63602
▁h	-9.63676
▁tiếc	-9.64094
▁dưỡng	-9.64095
▁thiệt	-9.64098
▁nóng	-9.64131
▁bậc	-9.64769
▁thảo	-9.64789
▁bát	-9.64819
e	-9.64899
▁pha	-9.64922
▁đột	-9.65001
▁khuyến	-9.6545
▁cụm	-9.65654
▁khóa	-9.65742
▁chó	-9.65743
▁thác	-9.66127
▁tường	-9.66142
▁máu	-9.66145
▁thịt	-9.6623
▁kiên	-9.6656
▁chỉnh	-9.66596
▁cờ	-9.66797
▁trừ	-9.66819
▁nở	-9.66826
▁súng	-9.6683
▁tú	-9.66888
▁tốn	-9.66959
▁gọn	-9.66994
▁trà	-9.6705
▁đo	-9.67065
▁ch	-9.67213
▁18	-9.67225
▁thấp	-9.6752
▁lừa	-9.6752
▁bấy	-9.6753
ch	-9.67635
▁ngon	-9.67643
▁lang	-9.67661
▁khơi	-9.68221
▁cất	-9.68226
▁th	-9.68615
▁daniel	-9.68922
▁lãng	-9.68937
▁bốn	-9.69263
▁trinh	-9.69637
▁lệnh	-9.69665
▁kì	-9.69738
▁lặp	-9.70345
▁mượn	-9.70345
▁hi	-9.70967
▁cưới	-9.71067
▁cháy	-9.71068
▁trồng	-9.71792
▁tuyên	-9.71797
▁hảo	-9.71822
▁bề	-9.71935
▁ngã	-9.72472
▁sạch	-9.72522
▁kem	-9.72524
▁tuyến	-9.72525
▁đáy	-9.72586
▁thúy	-9.72605
▁hô	-9.73088
▁bá	-9.73122
▁tách	-9.73579
▁e	-9.73961
▁%	-9.73995
▁rối	-9.73997
▁giấu	-9.73998
▁thôn	-9.74002
▁mâu	-9.74746
▁sung	-9.74802
▁david	-9.75494
▁giây	-9.75494
▁nhở	-9.75495
▁hộp	-9.75517
▁cướp	-9.76253
▁trãi	-9.76255
▁ma	-9.76289
▁thao	-9.76306
▁má	-9.76573
▁nạn	-9.76802
▁sổ	-9.7701
▁vẹn	-9.77017
▁tấn	-9.7702
▁túc	-9.7703
▁đệ	-9.77132
▁gi	-9.77466
▁mũ	-9.77761
▁dừa	-9.77786
▁hãi	-9.77787
▁lưng	-9.77791
▁bổ	-9.78475
▁tịch	-9.78562
▁tầng	-9.78564
▁đốc	-9.78566
▁phó	-9.78623
▁canh	-9.78681
▁leo	-9.79339
▁nhiệt	-9.79342
▁lăng	-9.79351
▁tràn	-9.7986
▁trôi	-9.80128
▁khao	-9.8013
▁ngân	-9.8013
▁nhi	-9.80704
▁chê	-9.80911
▁mốc	-9.80925
▁ghiền	-9.80926
▁thỉnh	-9.80927
▁binh	-9.80941
▁phúng	-9.81012
▁nổ	-9.81241
▁vạn	-9.81679
▁kịp	-9.81723
▁tráng	-9.81732
▁thuốc	-9.81733
▁mỏi	-9.81734
▁thụ	-9.82162
▁thoảng	-9.82533
▁xôi	-9.82544
▁chừng	-9.82577
▁chợ	-9.82603
▁muôn	-9.82725
▁qu	-9.82907
▁giấc	-9.83341
▁tỷ	-9.83342
▁mảnh	-9.83348
▁thuẫn	-9.83349
▁bớt	-9.83356
▁ừ	-9.84047
▁răng	-9.84163
▁rỡ	-9.84163
▁quỳnh	-9.84164
▁bận	-9.84186
▁gióng	-9.84345
▁tai	-9.84382
▁song	-9.84592
▁mù	-9.84866
▁dày	-9.84988
▁thầm	-9.84988
▁chở	-9.84992
▁đèn	-9.84993
▁bảy	-9.84997
▁bãi	-9.85002
▁cốc	-9.85097
▁đam	-9.85117
▁cát	-9.85148
▁ám	-9.85182
▁khô	-9.85693
▁phạt	-9.85826
▁nọ	-9.85851
▁tòa	-9.85863
▁u	-9.86468
▁oh	-9.86662
▁ngựa	-9.86671
▁tam	-9.86843
▁cải	-9.87025
▁sọ	-9.87297
▁quấn	-9.88365
▁chăng	-9.88373
▁vết	-9.88393
▁tổn	-9.88514
▁chu	-9.88864
▁thẩm	-9.89227
▁lâm	-9.89227
▁diêm	-9.89227
▁xứng	-9.89349
▁chừ	-9.89386
▁hán	-9.89765
▁nhằm	-9.90097
▁soát	-9.90104
▁can	-9.90416
▁củ	-9.90853
▁vắng	-9.90973
▁thẻ	-9.90975
▁bỗng	-9.90978
▁đớn	-9.91857
▁team	-9.91858
▁đùa	-9.9186
▁chiêu	-9.91871
▁vơi	-9.91876
▁cường	-9.92761
▁nạt	-9.92765
▁khích	-9.92775
▁thang	-9.92934
▁youtube	-9.93645
▁.000	-9.93652
▁diệt	-9.93652
▁tuyển	-9.93654
▁sáu	-9.93658
▁treo	-9.93662
▁đanh	-9.93704
▁bò	-9.93799
▁ái	-9.93936
▁ngăn	-9.9456
▁thăng	-9.94561
▁trầm	-9.94561
▁xâm	-9.94561
▁chửi	-9.94562
▁tệ	-9.94562
▁tạp	-9.94567
▁vĩnh	-9.9458
er	-9.94741
▁vã	-9.94993
▁k	-9.95247
▁tớ	-9.95433
▁trọn	-9.95472
▁tra	-9.9548
▁bạch	-9.95506
▁thảm	-9.95531
▁thua	-9.95716
▁kho	-9.96182
▁lò	-9.96233
▁xóm	-9.9641
▁bạo	-9.96429
▁tải	-9.96842
▁ngu	-9.96921
▁mãn	-9.97166
▁chiên	-9.97337
▁cặp	-9.97337
▁dối	-9.9734
▁bão	-9.97343
▁tung	-9.97481
▁chà	-9.97736
▁đ	-9.97799
▁im	-9.98282
▁mọc	-9.98285
▁suối	-9.98287
▁ờ	-9.98287
▁lão	-9.98288
▁tuyết	-9.9829
▁hò	-9.983
▁gà	-9.98345
▁thiêng	-9.98491
▁dâng	-9.98552
▁rama	-9.98837
▁quyển	-9.99235
▁gánh	-9.99236
▁no	-10.0006
▁rực	-10.002
▁cởi	-10.002
▁gũi	-10.002
▁phấn	-10.002
▁giấy	-10.002
▁40	-10.0021
▁ẩm	-10.0021
en	-10.0042
▁50	-10.0097
▁bền	-10.0107
▁trưa	-10.0117
▁xoay	-10.0117
▁lúa	-10.0117
▁thơm	-10.0133
▁lỗ	-10.0211
▁gấp	-10.0215
▁bụng	-10.0215
▁xưng	-10.0215
▁xót	-10.0216
▁tụ	-10.0293
▁ngộ	-10.0327
▁thề	-10.033
r	-10.0342
▁đẽ	-10.0414
▁giật	-10.0414
▁gieo	-10.0414
▁cống	-10.0469
▁mổ	-10.0486
▁kỉ	-10.0513
▁kín	-10.0514
▁thỏa	-10.0515
▁đài	-10.0524
▁khiếp	-10.0526
▁xu	-10.0583
▁phan	-10.0593
▁mờ	-10.0612
▁subscribe	-10.0617
▁ngưỡng	-10.0617
▁loạn	-10.0617
▁bụi	-10.0617
▁dịu	-10.0621
▁điên	-10.0628
▁hận	-10.072
▁ken	-10.0721
▁lát	-10.0733
▁phối	-10.0736
▁mẻ	-10.074
▁bào	-10.0762
▁ngừng	-10.0824
▁đứt	-10.0824
▁rào	-10.0824
▁lứa	-10.0824
▁thuần	-10.0825
▁sôi	-10.0825
▁đống	-10.0827
▁gián	-10.0865
▁the	-10.0884
▁khuôn	-10.0928
▁hoảng	-10.0929
▁mười	-10.0929
▁não	-10.093
▁vế	-10.0938
d	-10.0983
▁tán	-10.1
▁ngắm	-10.1036
▁đắc	-10.1036
▁vở	-10.1036
▁chục	-10.1036
▁xóa	-10.1038
▁si	-10.1045
▁khảo	-10.1045
▁lộn	-10.1046
▁điền	-10.1049
▁than	-10.1078
▁mạn	-10.1142
▁đúc	-10.1143
▁kh	-10.1147
▁bách	-10.1153
▁tông	-10.1163
▁25	-10.1227
▁fan	-10.1228
▁ồ	-10.1242
▁lăn	-10.1251
▁ghê	-10.1252
▁sữa	-10.1252
▁bọc	-10.1252
▁đốt	-10.1254
▁tứ	-10.1266
▁ép	-10.1277
▁ê	-10.1359
▁đẻ	-10.136
▁thấm	-10.1362
▁xương	-10.1362
▁13	-10.1367
ận	-10.1374
▁chăn	-10.1472
▁nhắm	-10.1473
▁hằng	-10.1473
▁gạch	-10.1473
▁đựng	-10.1473
▁tờ	-10.1473
▁thước	-10.1473
▁xói	-10.1474
▁hư	-10.1526
▁dặn	-10.1584
▁mực	-10.1585
▁táo	-10.1587
▁ngũ	-10.1598
x	-10.1615
▁dọn	-10.1698
▁sapa	-10.1699
▁nhẫn	-10.1699
▁tạ	-10.1731
▁tựa	-10.1799
▁phẳng	-10.1814
▁đợt	-10.1814
▁mưu	-10.1814
▁cành	-10.182
▁hỗ	-10.1825
▁ho	-10.1854
▁thợ	-10.1862
▁miễn	-10.193
▁phức	-10.193
▁sót	-10.1931
▁tá	-10.1932
▁rung	-10.1934
▁thuận	-10.1934
▁cay	-10.1958
▁roma	-10.1969
▁chín	-10.1988
▁đấn	-10.2047
▁muộn	-10.2048
▁paris	-10.2048
▁hiên	-10.2048
▁nếp	-10.2048
▁lùng	-10.2048
▁yisu	-10.2052
▁bỏng	-10.2115
ing	-10.2135
▁ngụ	-10.2162
▁facebook	-10.2167
▁gạo	-10.2167
▁chò	-10.2168
▁tuệ	-10.2171
▁cú	-10.2192
▁p	-10.2247
▁đỗ	-10.2284
▁nhục	-10.2288
▁tật	-10.2288
▁lồng	-10.229
▁dạo	-10.2296
▁liêng	-10.2304
▁me	-10.2317
▁nhị	-10.2318
▁uy	-10.232
▁sita	-10.241
▁đạp	-10.241
▁ngập	-10.241
▁hạng	-10.2435
▁cám	-10.244
▁ph	-10.2441
▁bế	-10.2491
▁truy	-10.2503
▁vuông	-10.2533
▁chép	-10.2533
▁chốt	-10.2533
▁ngẫm	-10.2533
▁hót	-10.2533
▁rửa	-10.2533
▁buông	-10.2534
▁yến	-10.2534
▁kìa	-10.2537
ắt	-10.2544
▁bia	-10.2554
▁dã	-10.2614
▁khoăn	-10.2656
▁trâm	-10.2658
▁chầm	-10.2658
▁17	-10.2665
▁đếm	-10.2666
▁trữ	-10.2667
▁màn	-10.2766
▁gắm	-10.2784
▁16	-10.2786
▁dọng	-10.2786
▁én	-10.2786
▁lung	-10.2787
▁24	-10.279
▁phách	-10.2791
▁bộc	-10.2809
▁co	-10.2883
▁man	-10.2895
▁cứng	-10.291
▁luân	-10.2912
▁xì	-10.2913
▁cấm	-10.2913
▁dáng	-10.2913
▁cột	-10.2914
▁tát	-10.2916
▁lông	-10.2917
▁bến	-10.2918
▁bể	-10.2957
▁dỗ	-10.3032
▁covid	-10.3042
▁chuỗi	-10.3042
▁kiếp	-10.3042
▁mềm	-10.3042
▁đảng	-10.3043
▁khiêm	-10.3048
▁tốc	-10.3052
▁vải	-10.3055
▁ti	-10.3069
▁men	-10.3133
ước	-10.3149
▁bắn	-10.3155
▁ngoan	-10.3174
▁khuất	-10.3175
▁nhường	-10.3175
▁lánh	-10.3182
▁túi	-10.3183
▁voi	-10.3195
1	-10.3286
▁đắn	-10.3306
▁chẽ	-10.3307
▁miếng	-10.3307
▁lật	-10.3308
▁giãn	-10.3308
▁nát	-10.3308
▁hot	-10.331
▁chinh	-10.3331
▁sốt	-10.3409
▁rộn	-10.3442
▁nghìn	-10.3442
▁hiệp	-10.3443
▁nhạy	-10.3443
▁hăng	-10.3443
▁ủa	-10.3444
k	-10.3445
▁ốc	-10.3445
▁thịnh	-10.3451
▁trừng	-10.3452
▁ha	-10.352
▁ngào	-10.358
▁thiêu	-10.3581
▁trống	-10.3582
▁phái	-10.364
▁lucky	-10.3718
▁share	-10.3718
▁trại	-10.3719
▁sếp	-10.3719
▁dở	-10.3719
▁khôi	-10.3726
▁hoán	-10.3761
▁phụng	-10.3782
▁sá	-10.3813
▁băn	-10.3858
▁ngây	-10.3859
▁đuối	-10.3859
▁sâm	-10.386
▁nụ	-10.386
▁cương	-10.386
▁cẩn	-10.3861
▁lãm	-10.3861
▁lì	-10.3871
▁nhãn	-10.391
▁ay	-10.3985
▁simong	-10.4002
▁đâm	-10.4002
▁viễn	-10.4002
▁kèm	-10.4002
▁ruộng	-10.4002
▁móc	-10.4003
▁lôi	-10.4006
▁lýp	-10.4034
▁đinh	-10.4057
▁võ	-10.4074
▁chặn	-10.4146
▁kiệt	-10.4147
▁game	-10.4147
▁hẹp	-10.4147
▁trật	-10.4147
▁gói	-10.4148
▁lạng	-10.4186
▁vỏ	-10.4233
▁phu	-10.4253
▁xả	-10.4284
▁hiển	-10.4294
▁phật	-10.4294
▁lướt	-10.4294
▁khẩu	-10.4294
▁ruột	-10.4294
▁thắc	-10.4294
▁ao	-10.4318
▁thoá	-10.4411
▁thô	-10.443
▁kệ	-10.4441
▁giọt	-10.4443
▁đậu	-10.4443
▁ấp	-10.4445
▁ham	-10.4451
▁nề	-10.4454
▁cản	-10.4572
ool	-10.4589
▁anna	-10.4592
▁jerusalem	-10.4595
▁nồng	-10.4595
▁súc	-10.4595
▁huyền	-10.4595
▁rách	-10.4595
▁nghịch	-10.4598
▁trúng	-10.4599
▁tv	-10.4602
▁mãnh	-10.4602
▁buôn	-10.4748
▁ekip	-10.4748
▁đụng	-10.4749
▁dọc	-10.4749
▁khéo	-10.4749
▁dứt	-10.4749
▁sấm	-10.4749
▁thận	-10.4749
▁up	-10.4752
▁mắng	-10.4753
▁bồi	-10.4755
▁ôn	-10.4759
▁khốn	-10.4762
▁xinh	-10.4764
▁sợi	-10.4818
▁họp	-10.4829
▁ru	-10.483
sch	-10.487
▁rắn	-10.4905
▁hỏa	-10.4905
▁quắc	-10.4905
▁cắn	-10.4905
▁nhầm	-10.4905
▁khía	-10.4923
▁bốc	-10.4934
▁đồi	-10.4957
▁xỉ	-10.5002
▁mụ	-10.5055
▁nadia	-10.5063
▁format	-10.5064
▁tiềm	-10.5064
▁cựu	-10.5064
▁đắng	-10.5065
▁bùng	-10.5068
▁giành	-10.5069
▁giày	-10.5072
▁bám	-10.5072
▁khánh	-10.5085
▁sưng	-10.5093
▁chop	-10.515
▁tà	-10.5218
▁gò	-10.5223
▁thiền	-10.5226
▁nhát	-10.5234
▁na	-10.5234
▁thổi	-10.524
▁khoe	-10.5256
▁soi	-10.5278
▁rau	-10.5296
▁cai	-10.5309
ường	-10.5336
▁gen	-10.5337
▁vá	-10.5381
▁content	-10.5389
▁vietcetera	-10.5389
▁thập	-10.5389
▁trướng	-10.5389
▁dâu	-10.5389
▁cẩm	-10.5389
▁hú	-10.539
▁đua	-10.539
▁khoăng	-10.539
▁chưng	-10.5391
▁cúng	-10.5396
▁huynh	-10.5397
▁vỗ	-10.541
▁mặn	-10.5425
▁my	-10.5475
▁chủng	-10.5508
▁0	-10.554
▁bồ	-10.5542
▁cỡ	-10.5552
▁thốn	-10.5554
▁tiệc	-10.5555
▁wow	-10.5555
▁tắm	-10.5555
▁lấp	-10.5556
▁hước	-10.5556
▁nảy	-10.5556
▁lala	-10.5556
▁ráng	-10.5557
▁mỏng	-10.5558
l	-10.5613
▁80	-10.5615
▁new	-10.5724
▁kiệm	-10.5725
▁phiền	-10.5725
▁hủy	-10.5727
▁lột	-10.574
▁trộn	-10.5744
▁trẻo	-10.5775
▁tỉ	-10.5786
▁ả	-10.5796
▁sam	-10.5815
▁nhã	-10.5864
▁giam	-10.5871
▁tagore	-10.5897
▁trơn	-10.5897
▁địch	-10.5897
▁ninh	-10.5898
▁bừng	-10.5898
▁ngất	-10.5898
▁nhạt	-10.5899
▁hái	-10.5899
▁vong	-10.5901
▁túng	-10.5911
▁đồn	-10.594
ạo	-10.5981
▁hè	-10.5982
▁khổng	-10.5998
▁tri	-10.6042
▁đố	-10.6056
▁ơ	-10.6057
▁quãng	-10.6073
▁hịch	-10.6073
▁soạn	-10.6073
▁set	-10.6073
▁trấn	-10.6073
▁dập	-10.6073
▁huyết	-10.6074
▁dê	-10.6087
▁đàng	-10.6105
▁khế	-10.6129
▁dư	-10.6138
b	-10.6138
▁chớ	-10.614
▁nợ	-10.6186
▁70	-10.6219
▁nô	-10.6235
▁lô	-10.6238
▁thèm	-10.6251
▁thâm	-10.6251
▁ghép	-10.6252
▁hiếm	-10.6252
▁sầu	-10.6253
▁ngõ	-10.6254
▁tùng	-10.6272
▁vịnh	-10.6284
▁tủ	-10.6363
▁nhăn	-10.6432
▁khuya	-10.6433
▁nhọc	-10.6433
▁huệ	-10.6434
▁dốc	-10.6434
▁lỏng	-10.6434
▁ngắt	-10.6435
▁xáo	-10.6435
▁thiếp	-10.6435
▁xài	-10.6435
▁đeo	-10.6435
▁bơi	-10.6436
▁sắt	-10.6436
▁mại	-10.6436
▁xun	-10.6438
▁chay	-10.6483
▁hoan	-10.6496
▁follow	-10.6555
▁lơ	-10.6558
▁hòn	-10.6584
▁babylon	-10.6618
▁hầm	-10.6619
▁chọc	-10.6619
▁chặng	-10.662
▁dắt	-10.6621
▁út	-10.6622
▁ngỡ	-10.6624
▁bóc	-10.6625
▁xui	-10.6627
▁khíu	-10.6629
▁lanh	-10.6631
▁ngông	-10.6648
▁son	-10.6667
▁gan	-10.6738
al	-10.6747
▁bội	-10.6769
▁gác	-10.6807
▁đắp	-10.6807
▁bực	-10.6808
▁tẩy	-10.6808
▁nút	-10.6808
▁tăm	-10.6808
▁chìm	-10.681
▁vầng	-10.6812
▁lạp	-10.6817
▁khải	-10.6848
▁khoan	-10.6875
▁le	-10.688
▁xí	-10.6906
▁mon	-10.6982
▁thỉ	-10.6998
▁tần	-10.6999
▁nhặt	-10.7
▁muối	-10.7
▁xích	-10.7
▁rước	-10.7001
▁rãi	-10.7001
▁chua	-10.7006
▁êm	-10.7007
▁tàng	-10.7011
▁đành	-10.7015
▁gai	-10.7027
▁bì	-10.7072
▁mc	-10.7178
▁rồn	-10.7195
▁abraham	-10.7195
▁trâu	-10.7196
▁khối	-10.7196
▁kito	-10.7196
▁rắc	-10.7196
▁hãng	-10.7196
▁rét	-10.7197
▁nồi	-10.7197
▁ngơi	-10.7198
▁bang	-10.7201
▁quái	-10.7254
ất	-10.7284
▁nộ	-10.7286
ẩn	-10.729
▁hỗn	-10.7377
▁trú	-10.7379
▁bù	-10.7381
ấu	-10.7382
▁đe	-10.7388
▁chật	-10.7396
▁nguyệt	-10.7396
▁thuê	-10.7397
▁ống	-10.7399
▁củng	-10.7407
▁cò	-10.7425
in	-10.7466
▁khinh	-10.7471
▁-3	-10.7508
▁xạ	-10.751
▁đò	-10.7593
▁23	-10.7593
▁hieu	-10.7599
▁concept	-10.7599
▁online	-10.7599
▁phiếu	-10.7599
▁ngần	-10.76
▁khoát	-10.76
▁chấn	-10.76
▁rủ	-10.7601
▁manh	-10.7605
▁200	-10.7606
▁chót	-10.7608
▁tg	-10.761
▁hông	-10.7622
▁bê	-10.7649
▁cối	-10.7706
▁oan	-10.7734
▁90	-10.775
ớt	-10.7784
▁vờ	-10.78
▁nicola	-10.7807
▁khương	-10.7808
▁chuông	-10.7808
▁quẩn	-10.7809
▁mênh	-10.7822
ét	-10.7842
▁tơ	-10.7975
▁de	-10.7999
▁xé	-10.8004
▁ngự	-10.8017
▁ngẫu	-10.8021
▁giường	-10.8021
▁lầu	-10.8022
▁ngực	-10.8022
▁27	-10.8023
▁bẩn	-10.8025
▁hở	-10.8029
▁khiển	-10.8034
▁phai	-10.8035
▁thùng	-10.8046
▁thai	-10.8061
▁ve	-10.809
▁cổng	-10.8091
▁live	-10.8139
▁cớ	-10.8141
éo	-10.8149
▁75	-10.816
▁vé	-10.8169
▁21	-10.818
▁rẻ	-10.8236
▁john	-10.8238
▁kpi	-10.8238
▁jesus	-10.8238
▁sạn	-10.8238
▁lưỡng	-10.8238
▁gối	-10.8239
▁thốt	-10.8239
▁óc	-10.8242
▁lau	-10.8248
▁củi	-10.825
▁cày	-10.8255
▁leader	-10.8264
▁lồ	-10.8277
▁60	-10.836
▁xô	-10.8452
▁vơ	-10.8456
▁dơ	-10.8457
▁trăn	-10.8459
▁rác	-10.846
▁đĩa	-10.846
▁khẩn	-10.8461
▁ngát	-10.8461
▁xăm	-10.8461
▁gãy	-10.8461
▁out	-10.8462
▁nén	-10.8463
▁gào	-10.8465
▁hèn	-10.8465
▁maria	-10.8482
▁chì	-10.8537
▁ngư	-10.859
▁va	-10.8618
▁giáng	-10.863
▁hủ	-10.8676
▁đắm	-10.8687
▁check	-10.8688
▁dọa	-10.8688
▁đầm	-10.8688
▁dẹp	-10.8688
▁rốt	-10.8688
▁lùi	-10.8688
▁mỡ	-10.8689
▁cúc	-10.8691
▁make	-10.8693
▁lui	-10.8694
▁đềm	-10.8694
▁bồng	-10.8696
▁tống	-10.8761
▁lề	-10.8784
▁o	-10.8787
▁lân	-10.884
▁ngó	-10.8851
ướng	-10.886
ấn	-10.8897
8	-10.8906
on	-10.8908
▁mẹn	-10.8914
▁york	-10.892
▁níu	-10.892
▁link	-10.892
▁quăng	-10.892
▁gồng	-10.892
▁lây	-10.892
▁trèo	-10.8921
▁lõi	-10.8921
▁nốt	-10.8922
▁biếm	-10.8922
▁hưu	-10.8923
▁hôi	-10.8935
▁lộng	-10.8958
▁khiết	-10.8963
▁tre	-10.8999
▁lã	-10.901
▁dí	-10.9024
▁đạ	-10.9025
▁ngạn	-10.9064
eo	-10.907
▁mi	-10.9155
▁phô	-10.9155
ẩu	-10.9156
▁ghế	-10.9157
▁phượng	-10.9158
▁liều	-10.9158
▁trứng	-10.9158
▁ngâm	-10.9159
▁thám	-10.9159
▁lụa	-10.9159
▁vắt	-10.9162
▁bùi	-10.9164
▁léo	-10.9166
▁tám	-10.9166
▁mv	-10.917
▁đan	-10.9192
▁dại	-10.92
▁i	-10.922
▁mau	-10.922
uộc	-10.9222
▁sốc	-10.9235
▁dồn	-10.9246
ion	-10.926
th	-10.9281
▁tui	-10.9317
▁ủ	-10.935
ắp	-10.9388
ết	-10.9392
▁rỗ	-10.9392
▁tì	-10.9397
▁dò	-10.9398
▁thán	-10.94
▁post	-10.9402
▁đuôi	-10.9402
▁beto	-10.9402
▁hâm	-10.9402
▁khốc	-10.9402
▁múa	-10.9402
▁cuồng	-10.9403
▁đoan	-10.9403
▁vây	-10.9403
▁dội	-10.9403
▁lắc	-10.9403
▁rớt	-10.9403
▁hức	-10.9403
▁duyệt	-10.9403
▁ấu	-10.9409
3	-10.9418
▁chóng	-10.942
▁bú	-10.9425
▁hốn	-10.9459
▁giò	-10.9465
▁cự	-10.9523
ức	-10.9525
▁xẻ	-10.9543
▁ổ	-10.9551
▁vôi	-10.9579
iêu	-10.9594
ầu	-10.9636
▁trend	-10.9649
▁lặn	-10.9651
▁andexen	-10.9652
▁ezekiel	-10.9652
▁moshe	-10.9652
▁rapper	-10.9652
▁gỗ	-10.9652
▁lười	-10.9652
▁buồm	-10.9652
▁triết	-10.9652
▁bino	-10.9653
▁náo	-10.9653
▁phơi	-10.9653
▁view	-10.9653
▁ốm	-10.9653
▁gắt	-10.9654
▁chiêm	-10.9654
▁neo	-10.9655
▁úc	-10.9656
▁dông	-10.9656
▁mạo	-10.9656
▁báu	-10.9656
▁chiết	-10.9658
▁dạc	-10.9662
▁tạng	-10.9663
▁giàn	-10.9664
▁yes	-10.9683
▁lạt	-10.9692
▁hân	-10.9693
▁nhò	-10.9706
▁rụ	-10.9712
▁nạ	-10.9743
ụp	-10.9763
▁đạn	-10.9767
▁hoạn	-10.9767
▁tị	-10.9793
ốt	-10.9837
▁45	-10.9862
▁hố	-10.989
▁ngà	-10.9891
▁internet	-10.9908
▁series	-10.9908
▁victor	-10.9909
▁ngoái	-10.9909
▁quất	-10.9909
▁háo	-10.9909
▁mảng	-10.9909
▁lụt	-10.991
▁thắt	-10.991
▁lẻ	-10.991
an	-10.9911
▁gom	-10.9911
▁khiếu	-10.9912
▁ngột	-10.9916
ấy	-10.9918
▁dãi	-10.9918
▁tôm	-10.9933
▁mị	-10.9982
▁-4	-10.9984
▁dì	-11.0019
▁vê	-11.0055
▁ngo	-11.0077
▁hu	-11.0078
na	-11.0124
▁top	-11.0132
ỡ	-11.0144
▁xo	-11.0148
▁lờ	-11.0167
▁enjoy	-11.0172
▁logic	-11.0172
▁album	-11.0172
▁diễm	-11.0172
▁khuyết	-11.0172
▁gởi	-11.0172
▁gầy	-11.0172
▁tháo	-11.0172
▁ngốc	-11.0172
▁hỏng	-11.0172
▁ngòi	-11.0172
▁trễ	-11.0173
▁khoáng	-11.0173
▁rèn	-11.0174
▁bấm	-11.0174
▁mộc	-11.0176
▁nôm	-11.0177
▁you	-11.0179
▁dinh	-11.018
▁hưng	-11.0184
▁rũ	-11.0188
▁tròe	-11.019
▁mòn	-11.0192
▁z	-11.0296
▁f	-11.0332
▁ga	-11.0332
▁ngón	-11.0369
▁loa	-11.0408
▁vươn	-11.0441
▁biếc	-11.0442
▁đực	-11.0442
▁miên	-11.0442
▁dẫu	-11.0442
▁quyện	-11.0442
▁khép	-11.0442
▁ngầm	-11.0443
▁cõi	-11.0443
▁phiêu	-11.0443
▁đắt	-11.0443
▁nhĩa	-11.0444
▁trùm	-11.0444
▁rồng	-11.0445
▁hiu	-11.0447
▁rong	-11.0447
▁28	-11.0448
▁doan	-11.045
▁móng	-11.0453
▁xá	-11.0456
▁dai	-11.0463
▁hoành	-11.0473
▁am	-11.0482
▁khỉ	-11.0535
ông	-11.0579
▁khoang	-11.0587
▁khe	-11.0629
ến	-11.0647
ẹo	-11.0679
ăm	-11.0707
'	-11.0713
▁khoản	-11.0718
▁isaiah	-11.072
▁quẹt	-11.072
▁lưới	-11.072
▁ghen	-11.072
▁chén	-11.072
▁nghiệt	-11.072
▁tiệm	-11.072
▁lụy	-11.0721
▁dậu	-11.0721
▁thiểu	-11.0721
▁liêu	-11.0721
▁cớp	-11.0722
▁mic	-11.0723
2	-11.0723
▁điếu	-11.0724
▁cài	-11.0769
▁thà	-11.079
ai	-11.0806
▁nhả	-11.0807
la	-11.0829
ồi	-11.0922
▁chém	-11.1006
▁laika	-11.1006
▁thiệp	-11.1006
▁amen	-11.1006
▁cafe	-11.1006
▁dọt	-11.1006
▁vặt	-11.1006
▁bầy	-11.1007
▁cội	-11.1007
▁ceo	-11.1009
▁đòn	-11.101
▁hung	-11.1011
▁bích	-11.1013
10	-11.1034
▁kén	-11.1055
▁nham	-11.1103
▁lu	-11.1126
▁mèn	-11.1169
ạt	-11.1194
▁rô	-11.1232
át	-11.128
▁mồ	-11.1282
▁thắn	-11.1299
▁cạn	-11.1299
▁project	-11.1299
▁trán	-11.1299
▁nhủ	-11.13
▁giặt	-11.13
▁đẫm	-11.13
▁gầm	-11.13
▁lưỡi	-11.13
▁cậy	-11.1301
▁mút	-11.1301
▁ngạo	-11.1302
▁mỉm	-11.1302
▁ném	-11.1303
▁heo	-11.1303
▁dưa	-11.1304
▁cửu	-11.1306
▁mồi	-11.1306
▁ủi	-11.1307
▁ồn	-11.131
▁mùng	-11.1318
▁buồng	-11.1327
▁trịnh	-11.1342
▁mạ	-11.1343
▁he	-11.1358
▁bàng	-11.1368
ail	-11.1388
▁ào	-11.1406
▁khoai	-11.1445
▁lợn	-11.1461
▁loan	-11.147
▁gu	-11.149
▁sả	-11.1523
úng	-11.1535
ảnh	-11.1563
▁săn	-11.1602
▁of	-11.1602
▁workshop	-11.1602
▁huỳnh	-11.1603
▁đục	-11.1603
▁chuột	-11.1603
▁chập	-11.1603
▁khuê	-11.1603
▁lầy	-11.1603
▁diễu	-11.1603
▁trêu	-11.1603
▁hãm	-11.1603
▁nạp	-11.1604
▁vác	-11.1604
▁vứt	-11.1604
▁lận	-11.1606
▁ương	-11.1608
▁chảo	-11.1613
▁que	-11.1631
▁tím	-11.1639
▁côi	-11.1646
▁sờ	-11.1671
▁cóp	-11.1693
▁bỉ	-11.1732
▁ah	-11.1779
st	-11.1785
or	-11.1795
es	-11.1808
▁ki	-11.1841
▁ab	-11.1843
▁go	-11.1871
▁nan	-11.1873
▁cồn	-11.1876
▁yê	-11.1907
▁bướm	-11.1915
▁quỹ	-11.1915
▁brand	-11.1915
▁xuôi	-11.1915
▁thắm	-11.1915
▁khùng	-11.1915
▁khẽ	-11.1915
▁rưỡi	-11.1915
▁rệt	-11.1915
▁trói	-11.1915
▁nuốt	-11.1916
▁quận	-11.1916
▁ướt	-11.1917
▁toát	-11.1917
▁mốt	-11.1917
▁dính	-11.1917
▁vách	-11.1918
▁mợ	-11.192
▁vước	-11.192
▁like	-11.1922
▁rủi	-11.1922
▁nghiêng	-11.1923
▁nhịn	-11.1924
▁bệ	-11.1925
▁off	-11.1945
▁bã	-11.1957
▁lội	-11.196
▁quế	-11.198
▁mu	-11.1981
▁ben	-11.1989
▁nàn	-11.1994
ưng	-11.201
▁nhào	-11.2153
▁phẩ	-11.2158
▁tiktok	-11.2169
ền	-11.2175
▁and	-11.2186
▁đê	-11.2194
▁mark	-11.2216
▁stress	-11.2237
▁matthew	-11.2238
▁tuôn	-11.2238
▁dặm	-11.2238
▁rẽ	-11.2238
▁gớm	-11.2238
▁kông	-11.2238
▁rầm	-11.2238
▁quét	-11.2238
▁bẻ	-11.2239
▁nhậu	-11.2239
▁gạt	-11.2239
▁rảnh	-11.2239
▁nể	-11.2239
▁ngửa	-11.2239
▁dồi	-11.224
▁hờn	-11.224
res	-11.224
▁nhánh	-11.2246
▁plan	-11.2261
ót	-11.2263
▁đàm	-11.2263
▁li	-11.2272
▁nhũ	-11.2274
▁ro	-11.2323
▁lố	-11.2323
ửa	-11.2326
▁ri	-11.2335
▁vóc	-11.2342
ật	-11.2374
▁31	-11.241
ốc	-11.2457
ắc	-11.2465
se	-11.247
▁ván	-11.2506
▁re	-11.2534
▁mỏ	-11.2562
...	-11.2565
▁quỳ	-11.257
▁singapore	-11.2571
▁level	-11.2571
▁nhiễm	-11.2571
▁suôi	-11.2571
▁triệt	-11.2571
▁cắm	-11.2571
▁khoác	-11.2571
▁kép	-11.2572
▁chầu	-11.2572
▁nhậm	-11.2572
▁vượng	-11.2572
▁cháo	-11.2572
▁nộp	-11.2572
▁vạch	-11.2572
▁bắp	-11.2576
▁pop	-11.2579
▁bái	-11.2596
▁lũng	-11.2604
ua	-11.2612
ong	-11.2644
ner	-11.2654
hét	-11.2672
▁vy	-11.2681
ép	-11.269
▁né	-11.2768
den	-11.2772
▁côn	-11.2772
▁is	-11.2787
▁vlog	-11.2794
▁gio	-11.2819
19	-11.282
âu	-11.2901
▁ngơ	-11.2903
▁phăn	-11.2915
▁32	-11.2915
▁havaship	-11.2916
▁yerushalem	-11.2916
▁design	-11.2916
▁híu	-11.2916
▁trượt	-11.2916
▁gậy	-11.2916
▁hãnh	-11.2916
▁sừng	-11.2916
▁vầy	-11.2917
▁ngửi	-11.2917
▁net	-11.2917
▁bìa	-11.292
▁hốt	-11.292
▁ưa	-11.292
▁xê	-11.2922
▁ngưng	-11.2925
iện	-11.2926
▁len	-11.2926
▁mose	-11.2935
dáo	-11.2976
▁nhét	-11.2989
óc	-11.2996
▁tản	-11.3011
▁chè	-11.3028
▁free	-11.308
▁vãn	-11.3096
▁van	-11.3106
ột	-11.3142
iệu	-11.3171
ân	-11.3219
ương	-11.3242
▁22	-11.3246
▁-5	-11.3251
xê	-11.3267
▁isaac	-11.3273
▁ásia	-11.3273
▁teresa	-11.3273
▁kẹt	-11.3273
▁quật	-11.3273
▁lẫy	-11.3274
▁thuế	-11.3274
▁đặng	-11.3274
▁đoạt	-11.3274
▁mập	-11.3274
▁tâu	-11.3275
▁bẩm	-11.3276
▁đấng	-11.3277
▁thính	-11.3285
00	-11.3286
▁bơ	-11.3293
▁xách	-11.33
▁gả	-11.3357
ẩy	-11.336
▁nhĩ	-11.336
▁kĩ	-11.3383
te	-11.3383
iệp	-11.3392
▁it	-11.3398
▁đu	-11.3435
▁mỉ	-11.3527
ầm	-11.3538
▁be	-11.3564
▁rè	-11.3609
▁sô	-11.3631
▁lượn	-11.3642
▁300	-11.3643
▁open	-11.3643
▁nhựa	-11.3644
▁thép	-11.3644
▁trạm	-11.3644
▁vẫy	-11.3644
▁tẩm	-11.3645
▁nép	-11.3647
▁chóp	-11.3649
uối	-11.3649
▁nôn	-11.365
▁lách	-11.3654
▁yuda	-11.3655
▁hit	-11.3658
▁ngàng	-11.366
▁gióp	-11.366
▁thùa	-11.3666
▁kiê	-11.3673
▁bèn	-11.368
▁cụt	-11.373
▁sò	-11.3762
▁nã	-11.3792
▁rán	-11.3802
▁dãn	-11.3804
ếp	-11.3808
▁nhang	-11.3822
▁time	-11.3839
ia	-11.385
4	-11.3857
▁bén	-11.3875
▁-2	-11.3899
▁nà	-11.391
ning	-11.3921
▁hờ	-11.394
▁-6	-11.3998
em	-11.3999
▁vò	-11.4014
cb	-11.4018
▁on	-11.4021
ial	-11.4024
▁phở	-11.4025
▁dịệu	-11.4028
▁gym	-11.4028
▁thạm	-11.4028
▁tiễn	-11.4028
▁salomon	-11.4028
▁tiều	-11.4029
▁mần	-11.4029
▁dệt	-11.4029
▁niu	-11.4029
▁nhấp	-11.4029
▁ngẩn	-11.403
▁dặng	-11.4033
▁ập	-11.4033
▁xám	-11.4033
▁điềm	-11.4039
ươi	-11.4044
▁tụng	-11.4047
▁chen	-11.4049
▁hop	-11.4055
▁ách	-11.4055
▁thải	-11.4057
▁bổng	-11.4058
▁ư	-11.4067
▁mọ	-11.4077
▁thuy	-11.4082
▁ngủi	-11.4086
▁đai	-11.4106
▁vạ	-11.4125
▁béo	-11.4157
ể	-11.4161
ẫm	-11.4165
ấm	-11.4221
ít	-11.4251
▁đí	-11.4252
▁chai	-11.4271
ấp	-11.4288
uyên	-11.4295
▁ep	-11.4309
▁tru	-11.4347
▁đặn	-11.4427
▁erode	-11.4428
▁wanzhang	-11.4428
▁zhang	-11.4428
▁miệt	-11.4428
▁gặt	-11.4428
▁nguyền	-11.4429
▁phước	-11.4429
▁chốc	-11.4429
▁xào	-11.443
▁rụng	-11.4435
▁ổi	-11.4435
▁chèm	-11.4437
ứt	-11.4442
▁lũy	-11.4445
▁vu	-11.4522
ca	-11.4552
▁duan	-11.4572
▁chang	-11.4707
and	-11.4709
line	-11.4763
▁ni	-11.4773
ập	-11.4781
▁phả	-11.4837
ic	-11.4837
▁gã	-11.4838
com	-11.4839
▁ngỏ	-11.484
▁dàn	-11.4843
▁business	-11.4844
▁concert	-11.4844
▁zoom	-11.4844
▁rock	-11.4844
▁2017	-11.4845
▁happy	-11.4845
▁tiếu	-11.4845
▁khâu	-11.4845
▁nhược	-11.4845
▁viến	-11.4845
▁phường	-11.4846
▁chông	-11.4846
▁hít	-11.4846
▁ngầu	-11.4846
▁back	-11.4846
▁mầm	-11.4847
▁lọt	-11.4848
▁hoại	-11.4848
▁hip	-11.4849
▁mồm	-11.485
▁cv	-11.4871
▁ngai	-11.4877
▁điêu	-11.4887
rễ	-11.491
▁tê	-11.492
▁chanh	-11.492
re	-11.4934
▁thọ	-11.496
ody	-11.4964
ra	-11.4986
▁chơ	-11.5007
ậm	-11.5044
ên	-11.5048
ăng	-11.5054
▁bún	-11.5067
hừng	-11.5133
▁hé	-11.5147
ớp	-11.515
ola	-11.5221
ter	-11.5254
▁150	-11.5261
ậu	-11.527
rô	-11.5271
▁ghé	-11.5276
▁đè	-11.5277
▁bở	-11.5277
▁trôn	-11.5279
▁instagram	-11.5279
▁lượm	-11.5279
▁luyến	-11.5279
▁kẽ	-11.528
▁part	-11.528
▁talk	-11.528
▁gọt	-11.528
▁niêm	-11.528
▁ngưởng	-11.528
▁hợi	-11.528
▁trèm	-11.528
▁rùa	-11.5281
▁rục	-11.5282
▁ship	-11.5282
▁oai	-11.5282
▁nấy	-11.5283
▁nến	-11.5283
▁xông	-11.5292
▁bèo	-11.5308
▁cáp	-11.5309
▁bói	-11.5335
▁lẽo	-11.5341
▁phạ	-11.5347
ếm	-11.5412
▁bu	-11.5415
▁mo	-11.5431
▁sộ	-11.5446
ta	-11.5451
ri	-11.5537
▁nhú	-11.5584
▁43	-11.56
▁cu	-11.5633
▁los	-11.5656
ích	-11.5662
▁bạ	-11.5694
▁trọ	-11.5701
ay	-11.5723
▁st	-11.5729
▁lươn	-11.5733
▁dán	-11.5733
▁google	-11.5734
▁hollywood	-11.5734
▁elisa	-11.5734
▁marketing	-11.5734
▁trộm	-11.5734
▁samson	-11.5734
▁trỗi	-11.5734
▁tour	-11.5734
▁sắm	-11.5734
▁gak	-11.5734
▁lừng	-11.5735
▁kẹo	-11.5735
xia	-11.5735
▁chùa	-11.5735
▁khoái	-11.5736
▁xốt	-11.5736
▁bậy	-11.5737
▁vướng	-11.5738
▁ii	-11.5739
▁đệp	-11.574
▁dãy	-11.5742
▁dít	-11.5742
▁tánh	-11.5743
▁mụn	-11.5744
êu	-11.5745
▁nôi	-11.5746
▁chụ	-11.5754
▁thỏ	-11.5768
nt	-11.579
▁lọ	-11.5791
tion	-11.5829
▁xó	-11.5842
ời	-11.5886
ẩm	-11.5889
▁vịt	-11.5919
▁vo	-11.5937
▁xoá	-11.5949
ằm	-11.5981
▁chư	-11.5982
▁vù	-11.6018
f	-11.6034
▁toan	-11.6049
▁ú	-11.6055
ah	-11.606
▁ven	-11.6174
ẫn	-11.619
▁500	-11.6206
▁nhổ	-11.6206
▁nhẽ	-11.6209
▁hecto	-11.6209
▁rabindranath	-11.621
▁research	-11.621
▁louis	-11.621
▁mindset	-11.621
▁noel	-11.621
▁angel	-11.621
▁icd	-11.621
▁trội	-11.6211
▁ngợp	-11.6211
▁bụt	-11.6211
fli	-11.6211
▁thối	-11.6211
▁rập	-11.6211
▁tề	-11.6211
▁ngách	-11.6211
▁mâm	-11.6212
▁dẫm	-11.6212
▁khuân	-11.6212
▁phàm	-11.6212
▁quyên	-11.6212
▁sỏi	-11.6212
▁sập	-11.6212
▁connect	-11.6212
▁mền	-11.6212
▁huyên	-11.6213
▁lắp	-11.6213
▁bần	-11.6213
▁lót	-11.6214
▁đùng	-11.6214
▁báp	-11.6218
▁ngạch	-11.6218
▁bùn	-11.6218
▁bóp	-11.6225
▁km	-11.6234
▁lêu	-11.6235
▁raken	-11.6238
ly	-11.6263
▁chan	-11.6268
úc	-11.6275
▁abc	-11.631
▁hoay	-11.6313
▁ngán	-11.6318
út	-11.6328
▁quáp	-11.634
▁đận	-11.6354
ữ	-11.6405
▁cuộn	-11.6442
ba	-11.6464
▁lú	-11.6546
ure	-11.6553
▁doi	-11.661
▁art	-11.6668
▁trá	-11.6694
▁tip	-11.6695
tô	-11.6696
ểu	-11.6706
▁dẻ	-11.6709
▁job	-11.6709
▁spotify	-11.671
▁world	-11.671
▁miếu	-11.671
▁review	-11.671
▁1941	-11.671
▁đũa	-11.671
▁sinai	-11.671
▁nhọn	-11.671
▁jeremiah	-11.671
▁gục	-11.6711
▁hẻm	-11.6712
▁nhếp	-11.6712
▁lẫm	-11.6712
▁chuối	-11.6712
▁rầu	-11.6712
▁yesu	-11.6713
▁viếng	-11.6713
▁dền	-11.6713
▁nâu	-11.6713
▁phàng	-11.6713
▁sảo	-11.6714
▁khang	-11.6714
▁chóc	-11.672
▁48	-11.672
▁29	-11.6724
▁sổn	-11.6734
ẻo	-11.6748
▁rộ	-11.6771
▁vụn	-11.679
▁trù	-11.6792
▁rã	-11.6812
ói	-11.6812
▁giói	-11.6821
▁cảng	-11.6824
▁bạng	-11.684
sa	-11.6849
ển	-11.6872
▁vớ	-11.6937
óp	-11.6998
▁sắn	-11.7014
ớm	-11.702
ảy	-11.7034
▁tho	-11.705
é	-11.706
▁-7	-11.7093
▁bala	-11.7111
ứa	-11.7112
▁ngan	-11.7132
ive	-11.7134
▁26	-11.7142
▁xị	-11.7163
ệt	-11.7164
▁í	-11.7165
be	-11.7209
▁bon	-11.7211
▁há	-11.7222
▁hoà	-11.7222
ậy	-11.7223
▁bô	-11.7227
▁nikon	-11.7236
▁search	-11.7236
▁philistin	-11.7236
▁ếch	-11.7236
▁idea	-11.7236
▁nikola	-11.7236
▁rạp	-11.7237
▁1975	-11.7237
▁media	-11.7237
▁boy	-11.7237
▁sành	-11.7237
▁đấm	-11.7237
▁luồng	-11.7237
▁đùn	-11.7237
▁ngặt	-11.7237
▁vừng	-11.7238
▁ngậm	-11.7238
▁vuốt	-11.7238
▁dâm	-11.7238
▁thóc	-11.7238
▁tặc	-11.7238
▁lóc	-11.7239
▁vấp	-11.7239
▁quyến	-11.7239
▁bục	-11.724
▁nêm	-11.7241
▁gông	-11.7241
▁rội	-11.7242
▁vùi	-11.7242
▁tào	-11.7243
▁400	-11.7243
▁lốt	-11.7244
▁kham	-11.7245
glo	-11.7246
▁teo	-11.7252
▁cana	-11.7253
ie	-11.7271
▁lĩ	-11.7273
▁giế	-11.7296
▁ke	-11.7296
▁trụng	-11.7301
▁dũ	-11.7303
▁lữ	-11.7312
▁mét	-11.7314
▁nao	-11.733
▁thoa	-11.7336
▁láng	-11.7357
9	-11.7367
▁banh	-11.7373
▁lay	-11.7375
▁love	-11.7386
▁kị	-11.74
uất	-11.7408
▁xà	-11.7425
uôn	-11.7446
▁kí	-11.7451
uận	-11.7465
30	-11.7519
▁rơ	-11.7528
▁kha	-11.753
▁hoạ	-11.7533
áng	-11.7539
ái	-11.7588
▁vest	-11.7612
▁luk	-11.7614
▁ố	-11.7626
▁41	-11.7666
ed	-11.7693
um	-11.7711
▁giạc	-11.7732
ment	-11.7755
âm	-11.7761
ặt	-11.7775
ặc	-11.7786
▁vữ	-11.779
▁cừu	-11.7792
▁feedback	-11.7792
▁hiphop	-11.7792
▁xuyến	-11.7792
▁mesia	-11.7792
▁good	-11.7792
▁khuinh	-11.7792
▁xuâm	-11.7792
▁khớp	-11.7792
▁dustin	-11.7793
▁riêm	-11.7793
▁lửng	-11.7793
▁râu	-11.7794
▁diết	-11.7795
▁đùi	-11.7795
▁work	-11.7795
▁xoa	-11.7795
▁sôn	-11.7797
▁tấu	-11.7797
▁cắp	-11.7797
▁bân	-11.7798
▁dô	-11.7798
▁iñ	-11.7798
▁elija	-11.7799
ground	-11.78
▁ây	-11.7801
▁dòi	-11.7803
▁kình	-11.7803
▁rỗi	-11.7803
iếm	-11.7808
▁vét	-11.7808
am	-11.7822
▁đong	-11.7835
▁nhí	-11.7851
▁chỏ	-11.787
▁even	-11.7875
▁quýt	-11.7883
▁nghẹ	-11.7909
▁bin	-11.7948
ượt	-11.7955
▁gặn	-11.7972
sit	-11.7993
▁gân	-11.7995
▁chat	-11.8008
▁hế	-11.8016
▁hệt	-11.8022
up	-11.8024
▁appl	-11.8035
ồng	-11.8141
▁ad	-11.8164
▁dè	-11.8182
ẹp	-11.8207
▁nai	-11.8217
úp	-11.8224
uốc	-11.8226
▁chàn	-11.8246
▁bả	-11.8272
ổng	-11.8291
áy	-11.8328
ef	-11.835
▁lụ	-11.8358
▁trổ	-11.8369
▁hứ	-11.8372
leduc	-11.838
▁hoãn	-11.838
▁jericho	-11.838
▁samuel	-11.838
▁studio	-11.838
▁hugo	-11.838
▁deadline	-11.838
▁chạp	-11.838
▁rọng	-11.8381
▁tiệt	-11.8381
▁2020	-11.8381
▁dino	-11.8381
▁1945	-11.8381
▁dược	-11.8381
▁gừng	-11.8382
▁nứa	-11.8382
▁ghếp	-11.8382
▁tuồng	-11.8383
▁chéo	-11.8383
▁lăm	-11.8383
▁tột	-11.8383
▁mảy	-11.8384
▁lấn	-11.8384
▁bôn	-11.8385
▁vút	-11.8385
▁bôi	-11.8386
▁chìa	-11.8386
▁sét	-11.8386
▁yisuu	-11.8387
▁lình	-11.8387
▁nhảm	-11.8389
▁vay	-11.839
▁...	-11.8391
▁35	-11.8392
▁are	-11.8394
▁dạch	-11.8397
▁trục	-11.8397
▁thảy	-11.8401
▁sanh	-11.8403
▁hoi	-11.8404
▁hớ	-11.8405
▁lòi	-11.8411
▁điếm	-11.8429
vi	-11.8475
▁,5	-11.8487
▁rợ	-11.8525
port	-11.8526
ới	-11.8569
▁thê	-11.857
▁dùm	-11.8619
▁ic	-11.8659
▁sườn	-11.866
▁bar	-11.8663
▁lé	-11.8715
▁tạc	-11.8731
▁not	-11.8734
ối	-11.8742
do	-11.8753
ro	-11.8819
▁rú	-11.8839
6	-11.8839
ưu	-11.8852
▁phun	-11.8856
▁đơ	-11.8873
áo	-11.8904
▁42	-11.8914
ội	-11.8957
▁34	-11.8996
ừa	-11.8997
▁nê	-11.8999
▁miến	-11.9004
▁demo	-11.9005
▁einstein	-11.9005
▁ixaya	-11.9005
▁phoenix	-11.9005
▁rebecca	-11.9005
▁thẳm	-11.9005
▁update	-11.9005
▁why	-11.9005
▁creator	-11.9005
▁thẹn	-11.9005
▁story	-11.9005
▁riếng	-11.9005
▁web	-11.9005
▁2015	-11.9005
▁phới	-11.9006
▁đới	-11.9006
▁ngùng	-11.9006
▁kiệu	-11.9006
▁nghiện	-11.9006
▁chuồng	-11.9006
▁trắc	-11.9006
▁rậm	-11.9007
▁hiếp	-11.9007
▁rể	-11.9007
▁phết	-11.9008
▁dải	-11.9008
▁rùi	-11.9008
▁bẫy	-11.9009
▁nhúc	-11.9009
▁ngạt	-11.901
▁nức	-11.901
▁cấn	-11.9011
▁dìa	-11.9011
▁62	-11.9011
▁-8	-11.9018
▁run	-11.9019
▁king	-11.902
ắn	-11.9023
▁sim	-11.9023
▁aiden	-11.9027
▁lộc	-11.9028
▁nạng	-11.9029
▁ngỗ	-11.9047
▁khảnh	-11.9047
▁phím	-11.905
ê	-11.906
▁ồi	-11.9063
▁tùm	-11.9064
▁hảm	-11.9065
▁we	-11.9072
ô	-11.908
▁chá	-11.9116
os	-11.9127
▁tảo	-11.913
cy	-11.918
▁đả	-11.9181
moth	-11.9182
▁tồ	-11.919
ình	-11.9198
▁po	-11.9209
ce	-11.9259
▁lế	-11.9265
▁phe	-11.9301
z	-11.9301
▁tựu	-11.9315
tor	-11.9338
60	-11.9339
▁chill	-11.9347
65	-11.9348
uống	-11.9357
▁gỏ	-11.9359
rồi	-11.9406
▁for	-11.9419
ễ	-11.9423
▁ngệ	-11.9437
ko	-11.945
▁nín	-11.9498
ệ	-11.9503
▁đù	-11.9554
▁bộng	-11.9626
ở	-11.9629
▁es	-11.9649
ượng	-11.9654
▁quạ	-11.9654
ine	-11.9655
▁trờ	-11.9668
▁giã	-11.9669
▁murakami	-11.9672
▁palestine	-11.9672
▁sehkhov	-11.9672
▁showbiz	-11.9672
▁faulo	-11.9672
▁version	-11.9672
▁oán	-11.9672
▁drama	-11.9672
▁chôi	-11.9672
▁lyric	-11.9672
▁1942	-11.9672
▁2018	-11.9672
▁2008	-11.9672
▁over	-11.9673
▁trác	-11.9673
▁rành	-11.9673
▁your	-11.9673
▁way	-11.9673
▁hụt	-11.9673
▁xèo	-11.9673
▁lèo	-11.9674
▁95	-11.9675
▁câm	-11.9675
▁tấp	-11.9675
▁mậu	-11.9675
▁pang	-11.9675
▁dôn	-11.9676
▁quạt	-11.9676
▁rợn	-11.9676
▁nít	-11.9676
▁chát	-11.9676
▁cưỡng	-11.9677
▁bới	-11.9678
▁bọt	-11.9678
▁tuông	-11.9678
lomon	-11.9679
▁63	-11.968
▁46	-11.968
▁sup	-11.9684
▁39	-11.9684
▁2000	-11.9685
▁phôi	-11.9685
▁list	-11.9688
▁tụt	-11.9691
ka	-11.9699
▁khiếm	-11.9727
▁tía	-11.9727
▁láo	-11.973
▁thím	-11.9736
▁thản	-11.9744
▁oa	-11.9751
▁nhung	-11.9752
▁hoá	-11.9773
▁nơ	-11.9776
▁195	-11.9777
▁vụt	-11.9785
▁loi	-11.9795
▁lạm	-11.9817
ệm	-11.9827
ầy	-11.9841
▁follo	-11.9871
5	-11.9885
▁thúng	-11.9918
ọt	-11.9964
yen	-11.9973
▁bũ	-12.0015
▁hạc	-12.0023
▁nhặn	-12.0035
▁nướ	-12.0063
▁rạc	-12.0082
▁nhằn	-12.0094
▁nhàn	-12.0131
ại	-12.0201
iễu	-12.0231
▁cặn	-12.0269
miu	-12.029
ần	-12.0298
èo	-12.0312
ục	-12.0313
▁lỏ	-12.0341
sco	-12.0353
ề	-12.0357
ẫy	-12.0378
kham	-12.038
ưởng	-12.0381
night	-12.0382
▁nặn	-12.0385
▁shock	-12.0386
▁challenge	-12.0386
▁power	-12.0386
▁visual	-12.0386
▁radio	-12.0386
▁phẫu	-12.0386
▁flow	-12.0386
▁2016	-12.0387
▁track	-12.0387
▁nỉ	-12.0387
▁host	-12.0387
▁rở	-12.0387
▁tý	-12.0388
▁dào	-12.0388
▁héc	-12.0388
▁book	-12.0388
▁xuẩn	-12.0388
▁nhèm	-12.0388
▁mượt	-12.0388
▁feel	-12.0389
▁lấm	-12.0389
▁thoả	-12.0389
▁pr	-12.0389
▁chùm	-12.0389
▁dầm	-12.0389
▁dìu	-12.039
▁lóng	-12.039
▁lén	-12.0391
▁47	-12.0391
▁phởt	-12.0391
▁nung	-12.0391
▁lụi	-12.0392
▁dình	-12.0392
▁lụng	-12.0392
▁73	-12.0394
▁gãi	-12.0395
rát	-12.0395
▁mịn	-12.0395
▁65	-12.0396
▁khuông	-12.0398
▁simb	-12.0398
▁chênh	-12.0399
▁61	-12.0401
▁mồng	-12.0401
ủy	-12.0405
▁dấ	-12.0408
▁xua	-12.0408
▁lum	-12.0411
▁hảnh	-12.0412
▁đỗi	-12.0415
▁ngãi	-12.0434
ung	-12.0437
▁điệm	-12.0443
▁tắn	-12.0444
▁tua	-12.0448
gập	-12.0449
tan	-12.0459
▁bít	-12.0462
▁khê	-12.0462
que	-12.0468
▁hù	-12.0472
ống	-12.0475
▁báng	-12.0485
▁hell	-12.0492
▁ngời	-12.0496
▁phùng	-12.0536
▁thủng	-12.0545
ne	-12.0565
ủi	-12.0583
ize	-12.0602
hoáng	-12.0615
▁ren	-12.0632
▁,	-12.0642
▁gií	-12.0656
ằng	-12.0679
de	-12.0729
▁vít	-12.073
▁han	-12.0742
ùa	-12.0746
▁chã	-12.0751
ỉa	-12.0791
ẳng	-12.0808
ry	-12.0851
ity	-12.0856
▁thò	-12.086
▁mớ	-12.0885
hất	-12.0892
hèo	-12.0895
ush	-12.092
hần	-12.094
▁kề	-12.094
▁196	-12.094
▁bỗ	-12.0961
▁gán	-12.0993
▁gợ	-12.0999
▁camp	-12.1039
▁nhó	-12.1052
▁37	-12.1102
▁nhụ	-12.1148
ược	-12.1149
list	-12.1149
bát	-12.115
▁full	-12.1153
▁ac	-12.1153
▁sàn	-12.1154
▁pari	-12.1155
▁fir	-12.1155
▁canada	-12.1155
▁yeah	-12.1155
▁chuyền	-12.1155
▁philip	-12.1155
▁chuộng	-12.1156
▁coach	-12.1156
▁ngoặt	-12.1156
▁elia	-12.1156
▁cọp	-12.1156
▁copy	-12.1156
▁giực	-12.1156
▁phẫn	-12.1156
▁zét	-12.1156
▁vision	-12.1156
▁lảng	-12.1156
▁ướp	-12.1156
▁subin	-12.1157
▁cọc	-12.1157
▁style	-12.1157
▁ngứa	-12.1157
▁vẳng	-12.1158
▁chấu	-12.1158
▁nicolas	-12.1158
▁gấu	-12.1159
▁xăng	-12.1159
▁diệp	-12.1159
▁đèo	-12.1159
▁nghẹn	-12.116
▁thuở	-12.1161
▁play	-12.1161
▁pô	-12.1162
▁thêu	-12.1163
▁nhen	-12.1166
▁bỡ	-12.1168
▁scene	-12.1168
▁úi	-12.1168
▁ầm	-12.1169
▁đốn	-12.1171
▁bung	-12.1172
▁nại	-12.1172
▁rông	-12.1172
▁take	-12.1174
▁tago	-12.1174
▁inter	-12.1177
▁vồ	-12.1184
▁đác	-12.1198
▁dực	-12.1213
▁té	-12.1215
ẽ	-12.1219
▁rổ	-12.1221
▁mí	-12.1226
▁tít	-12.1233
▁bời	-12.1252
▁gô	-12.1256
ab	-12.1258
va	-12.1265
▁ung	-12.127
ướn	-12.1285
ina	-12.1286
77	-12.1289
ải	-12.1292
ation	-12.1309
sting	-12.1311
▁real	-12.1335
▁pe	-12.1336
▁cán	-12.134
▁en	-12.1342
▁vợi	-12.1389
000	-12.1394
▁phà	-12.1405
▁lí	-12.1411
le	-12.1416
▁hũ	-12.142
▁rê	-12.1438
99	-12.1449
to	-12.1484
ui	-12.1555
son	-12.1567
▁nhộn	-12.1583
▁phili	-12.1604
▁sù	-12.1658
▁hên	-12.1674
▁vặn	-12.1676
ửng	-12.1681
▁thó	-12.1693
ịch	-12.1716
ron	-12.1733
ream	-12.1735
ưỡi	-12.174
▁dăn	-12.1771
▁giề	-12.1776
▁măn	-12.1827
bi	-12.184
▁bự	-12.187
iệm	-12.1896
sen	-12.1909
▁55	-12.1936
▁self	-12.1937
▁ản	-12.1961
sic	-12.1961
sk	-12.1969
▁je	-12.1975
▁38	-12.1986
▁jeremia	-12.1987
▁option	-12.1988
▁jona	-12.1988
▁franc	-12.1988
▁thạc	-12.1989
▁break	-12.1989
▁club	-12.1989
▁kỵ	-12.1989
▁manoahch	-12.1989
▁platform	-12.1989
▁viral	-12.1989
▁joanne	-12.1989
▁jock	-12.1989
▁travel	-12.1989
▁yushe	-12.1989
▁camera	-12.1989
▁2014	-12.1989
▁micro	-12.1989
▁nghêu	-12.1989
▁rắm	-12.1989
▁cover	-12.1989
▁rìu	-12.1989
▁1948	-12.1989
▁mắm	-12.1989
▁master	-12.1989
▁beth	-12.1989
▁đần	-12.1989
▁vèn	-12.1989
▁uốn	-12.1989
▁right	-12.199
▁skill	-12.199
▁đút	-12.199
▁file	-12.199
▁trối	-12.199
▁ngẩm	-12.1991
▁mầy	-12.1991
▁trọc	-12.1991
▁axe	-12.1991
▁simba	-12.1992
▁khắt	-12.1992
▁hỡi	-12.1992
▁best	-12.1992
▁note	-12.1992
ken	-12.1992
▁nòi	-12.1993
▁cọng	-12.1993
▁cùi	-12.1994
▁nấm	-12.1994
▁rợi	-12.1995
▁bâng	-12.1995
▁lốc	-12.1995
▁bỉnh	-12.1997
▁bậm	-12.1997
▁tưới	-12.1998
▁ant	-12.2001
▁xéo	-12.2002
▁vờn	-12.2003
▁chiem	-12.2007
▁hủi	-12.2007
▁tơi	-12.2008
▁vát	-12.2009
▁care	-12.2009
▁thụy	-12.2011
▁paul	-12.2016
▁cap	-12.2018
▁33	-12.2019
▁váng	-12.2019
▁bổn	-12.2028
old	-12.2032
nel	-12.2034
▁vãi	-12.2035
▁hun	-12.2037
▁ui	-12.2041
ốn	-12.2041
ỉnh	-12.2044
▁phơ	-12.2047
ứng	-12.2053
▁mìn	-12.2056
▁gõi	-12.2058
▁quàng	-12.2071
▁trụi	-12.2088
▁khít	-12.2108
▁jo	-12.2119
▁đị	-12.2126
▁giỏ	-12.2128
▁úm	-12.2131
▁chọng	-12.2134
▁mên	-12.2146
kin	-12.2154
▁vẻo	-12.2171
▁anti	-12.2181
▁pi	-12.2199
▁ngh	-12.2232
▁cưỡ	-12.2247
▁hao	-12.2261
▁xĩ	-12.2269
hóng	-12.2302
ban	-12.2313
▁vun	-12.2316
ạch	-12.2338
▁lư	-12.2381
▁chọ	-12.2419
40	-12.2431
▁pa	-12.2437
ary	-12.2468
▁ló	-12.2483
▁khú	-12.2497
ênh	-12.2507
co	-12.2513
▁sỉ	-12.2544
▁xế	-12.2552
▁lute	-12.2586
iềm	-12.2605
it	-12.2638
▁chù	-12.2653
ts	-12.2657
so	-12.2694
ý	-12.2703
▁180	-12.2711
bcd	-12.2737
hực	-12.2745
▁-9	-12.2746
▁.3	-12.2767
▁fi	-12.2779
▁star	-12.281
j	-12.283
▁khư	-12.2836
▁chẻ	-12.2844
ờ	-12.2858
▁cù	-12.2878
ịt	-12.289
▁nabu	-12.2893
▁54	-12.2894
▁phế	-12.2895
pop	-12.2897
▁nò	-12.2898
▁2021	-12.2898
▁budget	-12.2898
▁comeback	-12.2898
▁izaya	-12.2898
▁jehdiko	-12.2898
▁keyword	-12.2898
▁next	-12.2898
▁public	-12.2898
▁thomas	-12.2898
▁paper	-12.2898
▁space	-12.2898
▁collective	-12.2898
▁profession	-12.2898
▁original	-12.2898
▁producer	-12.2898
▁michael	-12.2898
▁mosé	-12.2898
▁1989	-12.2898
▁ngác	-12.2898
▁1994	-12.2898
▁ngoặc	-12.2898
▁sủa	-12.2898
▁fail	-12.2898
▁some	-12.2898
▁hãn	-12.2898
▁ngùi	-12.2899
▁liêm	-12.2899
▁tiêm	-12.2899
▁kèo	-12.2899
▁miết	-12.29
▁mý	-12.29
▁chách	-12.29
▁aram	-12.29
▁vựng	-12.29
▁nhện	-12.29
▁pro	-12.2901
▁khước	-12.2901
▁vẹt	-12.2902
▁thạo	-12.2902
▁nhụm	-12.2902
▁óng	-12.2903
▁tuyền	-12.2904
▁bặt	-12.2905
tuck	-12.2906
▁rũa	-12.2907
▁product	-12.2908
▁bầm	-12.2908
▁120	-12.2909
▁mịt	-12.291
▁messia	-12.291
▁91	-12.291
ate	-12.2912
▁băm	-12.2912
▁sọc	-12.2912
▁lìa	-12.2915
▁cước	-12.2915
▁bua	-12.2918
▁chòa	-12.2918
▁kiề	-12.2921
▁ngạ	-12.2924
▁edit	-12.2927
▁lon	-12.2932
▁techni	-12.2952
▁kháp	-12.2957
▁un	-12.2962
▁trã	-12.2963
▁lở	-12.2974
▁sơm	-12.2995
ontrol	-12.302
iều	-12.3025
▁hổi	-12.3033
▁dang	-12.3035
▁dạm	-12.3035
▁chời	-12.307
ạng	-12.3127
ặng	-12.3133
▁justi	-12.3179
ase	-12.3189
▁fin	-12.3201
▁seas	-12.3218
iel	-12.3233
▁viet	-12.3281
▁day	-12.3282
▁lênh	-12.3313
▁mè	-12.3326
▁sit	-12.3326
ện	-12.3366
ưỡng	-12.3381
▁jean	-12.3385
▁se	-12.3396
io	-12.3398
im	-12.342
▁tẻ	-12.3422
▁tửng	-12.3434
11	-12.3494
▁nhì	-12.3505
▁rí	-12.3507
ss	-12.3531
ách	-12.3556
▁rà	-12.3556
24	-12.3557
my	-12.3564
▁bộn	-12.3576
▁how	-12.3584
▁mesa	-12.3589
▁vồn	-12.3594
afe	-12.3671
▁bọ	-12.3685
êm	-12.3686
ính	-12.3688
pt	-12.3692
én	-12.3705
▁trip	-12.3716
▁ne	-12.374
▁lõ	-12.3772
▁lead	-12.3774
▁nệ	-12.3781
▁tiế	-12.3791
▁36	-12.3817
out	-12.3835
▁home	-12.3849
mail	-12.386
ợ	-12.3864
è	-12.3868
▁79	-12.3878
▁sụ	-12.3888
▁nhạ	-12.3888
work	-12.389
view	-12.3892
thêu	-12.3892
▁hử	-12.3892
▁khơ	-12.3893
▁đờ	-12.3894
gù	-12.3894
ẵng	-12.3896
▁mệ	-12.3897
▁pass	-12.3897
scow	-12.3898
uchia	-12.3898
▁what	-12.3898
▁&	-12.3898
▁aykab	-12.3898
▁bellicose	-12.3898
▁identity	-12.3898
▁nabukodonos	-12.3898
▁group	-12.3898
▁jelly	-12.3898
▁adapt	-12.3898
▁high	-12.3898
▁phũ	-12.3898
▁1971	-12.3898
▁food	-12.3898
▁2007	-12.3898
▁ending	-12.3898
▁iñia	-12.3898
▁belem	-12.3898
▁nguôi	-12.3898
▁deep	-12.3898
▁luca	-12.3898
▁virus	-12.3898
▁samari	-12.3898
▁gặm	-12.3898
▁1990	-12.3898
▁hòài	-12.3898
▁giược	-12.3898
▁sexy	-12.3899
▁gượng	-12.3899
▁ruth	-12.3899
▁branding	-12.3899
▁rần	-12.3899
▁quạnh	-12.39
▁nhiễu	-12.39
▁.0	-12.39
▁hóc	-12.39
▁rứt	-12.39
▁múi	-12.39
▁hẻ	-12.3901
▁rảy	-12.3901
▁nhẽo	-12.3902
▁mẫn	-12.3902
eso	-12.3902
▁đạc	-12.3902
▁rết	-12.3903
▁buốt	-12.3903
▁ních	-12.3903
▁youtuber	-12.3903
▁gót	-12.3903
▁lợ	-12.3904
▁nấp	-12.3904
▁tưng	-12.3904
▁dina	-12.3904
▁rạo	-12.3904
▁bừa	-12.3905
▁héo	-12.3905
▁64	-12.3906
▁phen	-12.3907
▁đếch	-12.3909
▁nguyen	-12.391
▁rỗng	-12.392
▁tụy	-12.392
▁bịt	-12.3921
▁hủng	-12.3922
▁cỡi	-12.3927
▁51	-12.3929
▁cờt	-12.3941
96	-12.3946
▁ừm	-12.3947
▁hòi	-12.3949
huân	-12.3954
▁gàng	-12.3955
▁sun	-12.3957
▁vãng	-12.3961
ạc	-12.3967
ã	-12.3969
▁bad	-12.3973
▁lạch	-12.3974
▁cào	-12.3978
▁god	-12.3978
▁ama	-12.398
▁mé	-12.3981
▁hụ	-12.4
▁ừng	-12.4006
▁dan	-12.4011
▁sảng	-12.4012
ru	-12.4016
ote	-12.4049
za	-12.4068
▁sửng	-12.4069
▁vó	-12.4079
500	-12.4079
xi	-12.4079
▁yế	-12.4172
▁nả	-12.4199
▁quác	-12.4221
▁186	-12.4227
▁thun	-12.4283
úa	-12.429
ma	-12.4309
▁ivan	-12.432
ỏi	-12.4323
▁khiên	-12.433
▁cụi	-12.4334
▁bành	-12.4344
▁tó	-12.4355
ãi	-12.439
▁độn	-12.4395
▁gó	-12.4403
87	-12.4416
aint	-12.4421
▁hoai	-12.444
ight	-12.4481
▁af	-12.449
▁dỉ	-12.4503
ad	-12.4505
ick	-12.4522
▁lù	-12.4535
▁bo	-12.4536
▁jos	-12.4557
ey	-12.4557
▁nhơ	-12.4578
et	-12.4581
hu	-12.4591
▁nhè	-12.4617
ài	-12.4627
man	-12.4649
ếc	-12.4689
▁ngợ	-12.4691
▁.5	-12.471
ix	-12.4723
ven	-12.4747
aria	-12.4758
▁sh	-12.4768
20	-12.4771
▁vẹ	-12.48
▁el	-12.4806
gan	-12.481
ưa	-12.4815
▁rõng	-12.4822
joe	-12.4822
▁giạ	-12.4829
top	-12.4845
▁bea	-12.4846
▁q	-12.4849
▁đoả	-12.4896
▁198	-12.4901
67	-12.494
xao	-12.4954
ững	-12.4954
▁rù	-12.4989
ây	-12.499
gô	-12.4996
ằn	-12.5
▁bot	-12.5002
▁tech	-12.5004
thay	-12.5004
ỳ	-12.5005
rew	-12.5006
▁trệ	-12.5006
▁56	-12.5007
▁cuồn	-12.5008
▁xăn	-12.5009
▁nobel	-12.5009
▁robot	-12.5009
▁vaccine	-12.5009
▁vincent	-12.5009
▁bye	-12.5009
▁judah	-12.5009
▁midori	-12.5009
▁frame	-12.5009
▁single	-12.5009
▁boss	-12.5009
▁ngoạn	-12.5009
▁healthy	-12.5009
▁marco	-12.5009
▁crush	-12.5009
▁haley	-12.5009
▁hosea	-12.5009
▁seikop	-12.5009
▁ướm	-12.5009
▁vtv	-12.5009
▁kol	-12.5009
▁trũng	-12.5009
▁1982	-12.5009
▁1985	-12.5009
▁down	-12.5009
▁anten	-12.5009
▁1980	-12.5009
▁trẳng	-12.501
▁cạp	-12.501
▁mind	-12.501
▁sorry	-12.501
▁gáp	-12.501
▁blogger	-12.501
mình	-12.501
▁đuốc	-12.5011
▁life	-12.5011
▁2001	-12.5011
▁agen	-12.5011
▁test	-12.5011
▁ngượng	-12.5011
▁lùn	-12.5011
▁nắn	-12.5012
▁đật	-12.5012
▁gật	-12.5012
▁găng	-12.5012
▁nịch	-12.5012
▁ash	-12.5012
▁nhiêm	-12.5012
▁city	-12.5012
▁quyệt	-12.5013
▁ngút	-12.5013
ting	-12.5013
▁vèo	-12.5013
▁rêu	-12.5013
▁587	-12.5013
▁hùa	-12.5014
▁phăng	-12.5014
▁biền	-12.5014
▁nhích	-12.5014
▁form	-12.5015
▁duật	-12.5016
▁hắt	-12.5016
▁thòi	-12.5016
▁lảnh	-12.5016
▁noen	-12.5017
▁xàm	-12.5017
▁dẻo	-12.5017
▁chart	-12.5018
▁đun	-12.5018
▁săng	-12.502
abel	-12.502
▁vạm	-12.5022
▁méo	-12.5022
▁constantino	-12.5023
▁ngỏi	-12.5024
▁vòi	-12.5024
▁talent	-12.5025
▁mước	-12.5026
▁đung	-12.5027
▁xôn	-12.5028
ue	-12.5029
▁nhành	-12.5031
rf	-12.5033
ood	-12.5036
▁dên	-12.5038
iếp	-12.5041
▁típ	-12.5045
▁ari	-12.5046
▁marie	-12.5047
ướt	-12.5055
▁bính	-12.5068
▁khóe	-12.509
▁fast	-12.509
▁đọ	-12.5093
12	-12.5094
▁búc	-12.5099
▁đao	-12.5104
▁rela	-12.5106
▁-15	-12.5107
ỷ	-12.5109
▁,2	-12.513
rd	-12.5134
ủng	-12.5135
zon	-12.5161
▁bente	-12.5166
▁dạn	-12.517
úi	-12.5174
▁rượ	-12.5176
▁gam	-12.5177
âng	-12.5181
pa	-12.5183
25	-12.5189
▁name	-12.519
ìm	-12.5194
▁hỡ	-12.5212
0	-12.5225
pic	-12.5227
ster	-12.5255
▁phỉ	-12.5281
▁ze	-12.5291
▁ngử	-12.5301
▁ja	-12.5316
▁sê	-12.5329
án	-12.533
▁thúi	-12.5342
▁com	-12.5381
▁vesto	-12.5392
▁cạc	-12.5392
est	-12.5401
▁musk	-12.5409
skin	-12.541
▁gá	-12.5421
nice	-12.5427
▁will	-12.5438
▁dằn	-12.5454
lar	-12.5483
ano	-12.5496
▁rạn	-12.5499
▁win	-12.5502
uyển	-12.5509
05	-12.5527
fa	-12.5547
▁te	-12.5602
▁vali	-12.5604
bert	-12.5614
gơm	-12.5621
ship	-12.5621
7	-12.5643
▁lổ	-12.5651
▁hí	-12.5678
for	-12.5688
▁mó	-12.569
▁bư	-12.5715
hoạt	-12.5731
uyệt	-12.5736
ance	-12.5769
cast	-12.5812
▁ye	-12.5846
ys	-12.5852
▁76	-12.5927
▁vietnamesepo	-12.5933
der	-12.5956
▁bur	-12.5958
▁xi	-12.5962
▁fol	-12.5971
ế	-12.5992
▁quặn	-12.5993
▁photo	-12.6002
id	-12.6004
▁lẹ	-12.6026
ợt	-12.6033
▁nãn	-12.6033
ise	-12.6052
▁rò	-12.6054
▁j	-12.6066
▁-20	-12.6104
▁gar	-12.6118
▁59	-12.6144
▁mone	-12.6145
ựa	-12.6152
▁nế	-12.616
▁77	-12.6211
hấn	-12.6215
ẹt	-12.6218
ẻ	-12.6226
▁hã	-12.624
▁cộ	-12.6243
▁rề	-12.6246
rge	-12.625
rê	-12.6251
how	-12.6251
side	-12.6252
page	-12.6253
bê	-12.6254
▁nghè	-12.6257
▁vượn	-12.6258
▁lgbt	-12.6259
▁fashion	-12.6259
▁speak	-12.6259
▁andresen	-12.6259
▁bellicope	-12.6259
▁hours	-12.6259
▁hydro	-12.6259
▁idol	-12.6259
▁inspire	-12.6259
▁janaka	-12.6259
▁nabokono	-12.6259
▁nabucodonoso	-12.6259
▁ruanda	-12.6259
▁status	-12.6259
▁underground	-12.6259
▁hippri	-12.6259
▁computation	-12.6259
▁yusé	-12.6259
▁yerussalem	-12.6259
▁comput	-12.6259
▁maxim	-12.6259
▁nabuchodonosor	-12.6259
▁confirm	-12.6259
▁havership	-12.6259
▁tăn	-12.6259
▁nhõm	-12.6259
▁năn	-12.6259
▁para	-12.6259
▁diếng	-12.626
▁zion	-12.626
▁giạp	-12.626
▁unic	-12.626
▁1940	-12.626
unch	-12.626
▁saulé	-12.626
▁creat	-12.626
▁text	-12.626
▁adam	-12.626
▁house	-12.626
▁kẹp	-12.626
▁seat	-12.626
▁nịnh	-12.6261
▁benz	-12.6261
▁trending	-12.6261
▁đựa	-12.6261
▁sasa	-12.6261
▁2005	-12.6261
▁graph	-12.6261
▁rick	-12.6261
vét	-12.6261
▁read	-12.6261
▁ngở	-12.6261
▁dream	-12.6261
overt	-12.6261
▁sạc	-12.6262
▁action	-12.6262
▁nhượng	-12.6262
▁kai	-12.6262
▁genera	-12.6262
▁giỡn	-12.6262
▁khấn	-12.6262
▁ruồi	-12.6262
▁đíu	-12.6262
▁muốt	-12.6262
▁thòa	-12.6263
▁come	-12.6263
▁nick	-12.6263
▁địn	-12.6264
▁bel	-12.6264
▁đạch	-12.6264
▁mel	-12.6264
▁chuất	-12.6264
▁lúp	-12.6264
▁rùm	-12.6265
▁liện	-12.6265
▁vẩm	-12.6265
▁.4	-12.6266
▁bẽ	-12.6266
iya	-12.6266
▁abel	-12.6266
▁max	-12.6266
▁nhúm	-12.6267
▁dức	-12.6268
▁lẩn	-12.6269
▁skin	-12.6269
▁vùn	-12.6269
▁mẩn	-12.6271
▁ớn	-12.6273
erp	-12.6274
▁lọi	-12.6274
▁loát	-12.6275
▁sột	-12.6276
▁dìn	-12.6277
▁cool	-12.628
▁ngả	-12.628
▁dơm	-12.6282
▁xén	-12.6283
▁58	-12.6285
ow	-12.6287
▁fam	-12.6288
▁loang	-12.6289
▁cỡm	-12.629
▁phông	-12.629
phone	-12.6305
▁yog	-12.6306
▁mả	-12.6308
▁dạp	-12.6308
▁uk	-12.6313
ớn	-12.6314
▁kếp	-12.6314
▁nghịnh	-12.6325
▁homer	-12.6325
▁túm	-12.6333
▁thít	-12.6358
▁cửi	-12.6372
ess	-12.6375
▁187	-12.6383
rome	-12.6383
tle	-12.6384
▁ngoãn	-12.6391
▁benj	-12.6392
▁hột	-12.6394
▁guide	-12.643
▁bợ	-12.6431
▁ngò	-12.6442
▁leg	-12.6445
onus	-12.6461
▁đỡi	-12.6469
▁toa	-12.6477
us	-12.6478
ilia	-12.6504
▁pho	-12.6524
da	-12.6532
▁trè	-12.6561
▁hì	-12.657
fero	-12.6577
▁sams	-12.6597
▁giền	-12.6598
fas	-12.6634
▁gol	-12.6641
▁mõ	-12.6724
rak	-12.6726
▁xơ	-12.6768
22	-12.687
▁trê	-12.6872
light	-12.6883
ar	-12.6889
▁rá	-12.6901
▁nu	-12.6908
▁trạ	-12.6929
▁yo	-12.6932
▁bus	-12.695
xe	-12.697
46	-12.6981
▁rả	-12.6988
▁al	-12.7018
▁bét	-12.7032
▁93	-12.705
▁jave	-12.7057
▁bốm	-12.7104
ĩa	-12.7112
▁lab	-12.7134
huyển	-12.7142
ré	-12.7149
▁bd	-12.7187
bal	-12.7198
▁luy	-12.7212
▁nhố	-12.7229
▁ed	-12.7239
▁ex	-12.7241
itle	-12.7244
ture	-12.725
▁don	-12.7252
44	-12.7257
▁vộ	-12.7276
▁ngớ	-12.7297
ỗi	-12.7308
▁band	-12.7313
▁đì	-12.7319
▁at	-12.732
àng	-12.7324
▁bụ	-12.7333
ựu	-12.7354
▁xõ	-12.7378
ctor	-12.7388
▁53	-12.7402
oin	-12.7447
tra	-12.745
▁app	-12.7464
▁chồ	-12.7476
age	-12.7484
▁trồ	-12.7511
▁sộn	-12.7515
iki	-12.7543
ller	-12.7563
▁sớ	-12.7578
▁194	-12.7615
ous	-12.765
ùm	-12.7653
ỏ	-12.7657
ud	-12.7668
▁49	-12.7673
▁rồ	-12.7675
bar	-12.7675
▁bitc	-12.7676
▁hỏ	-12.7676
q	-12.7679
▁cọ	-12.768
▁w	-12.768
xứ	-12.7681
món	-12.7682
uyết	-12.7683
ghẻ	-12.7685
than	-12.7685
▁galile	-12.7685
▁luồn	-12.7687
▁girl	-12.7687
▁build	-12.7687
▁nhữ	-12.7687
▁object	-12.7687
▁anyway	-12.7687
▁boost	-12.7687
▁digita	-12.7687
▁dvd	-12.7687
▁flop	-12.7687
▁giỡ	-12.7687
▁havacip	-12.7687
▁jenny	-12.7687
▁juliette	-12.7687
▁khỏa	-12.7687
▁kodonoz	-12.7687
▁malaysia	-12.7687
▁maroc	-12.7687
▁nickname	-12.7687
▁olympi	-12.7687
▁personal	-12.7687
▁relationship	-12.7687
▁scandal	-12.7687
ough	-12.7687
▁james	-12.7687
▁nazareth	-12.7687
▁comedy	-12.7687
▁jackson	-12.7687
▁model	-12.7687
▁sapo	-12.7687
▁accounting	-12.7687
▁practical	-12.7687
▁helen	-12.7687
▁acid	-12.7687
▁moscow	-12.7688
▁1939	-12.7688
▁network	-12.7688
▁joker	-12.7688
▁moment	-12.7688
arus	-12.7688
▁step	-12.7688
▁hiv	-12.7688
▁latte	-12.7688
▁1986	-12.7688
▁antony	-12.7688
▁beauty	-12.7688
▁press	-12.7688
▁1789	-12.7688
▁galilee	-12.7688
▁miễm	-12.7688
▁trồn	-12.7688
▁blog	-12.7688
▁phình	-12.7689
▁kari	-12.7689
▁levi	-12.7689
▁get	-12.7689
▁jim	-12.7689
▁audio	-12.7689
▁duộng	-12.7689
▁ráp	-12.7689
▁riết	-12.7689
▁2022	-12.7689
▁logo	-12.769
▁diss	-12.769
▁đậy	-12.769
▁end	-12.769
▁nẵng	-12.7691
▁hách	-12.7691
▁nhiềm	-12.7691
▁dali	-12.7691
▁one	-12.7691
▁rẫm	-12.7691
▁mara	-12.7691
▁nhâm	-12.7692
▁trạch	-12.7692
▁rương	-12.7692
▁siết	-12.7692
▁114	-12.7692
▁thẩn	-12.7693
▁box	-12.7693
▁sệt	-12.7693
▁rép	-12.7693
▁noe	-12.7695
▁kong	-12.7695
▁tém	-12.7695
▁page	-12.7695
▁vạc	-12.7695
▁ngải	-12.7695
▁66	-12.7696
▁trùn	-12.7698
▁nạc	-12.7698
▁dích	-12.7698
▁duộc	-12.7698
▁podcaster	-12.77
▁trổi	-12.77
▁lút	-12.7701
▁nắp	-12.7701
▁600	-12.7701
▁nhói	-12.7703
▁port	-12.7703
iễn	-12.7704
▁72	-12.7704
▁martin	-12.7704
▁ủn	-12.7707
▁siu	-12.7709
▁trau	-12.771
uồng	-12.7711
▁mac	-12.7715
▁tạy	-12.7716
▁chêu	-12.7716
▁đẻo	-12.7716
▁von	-12.7717
▁bùa	-12.7718
▁ruộ	-12.7721
13	-12.7722
▁bồn	-12.7722
uốt	-12.7731
▁dịn	-12.7735
▁túy	-12.7737
▁choice	-12.7741
vership	-12.7745
▁phồn	-12.7747
ore	-12.7752
▁tràm	-12.7774
▁trìn	-12.7782
hind	-12.7784
▁eva	-12.7785
▁trust	-12.7789
▁mọn	-12.7805
rcia	-12.7815
ac	-12.7831
▁rữ	-12.7844
▁đoá	-12.7847
▁dis	-12.7854
õng	-12.7869
ent	-12.7888
▁cõ	-12.7903
▁càn	-12.7906
ck	-12.7959
▁khiem	-12.7977
gy	-12.7984
all	-12.7986
▁sing	-12.7997
iêng	-12.803
kill	-12.8058
sing	-12.8069
ọc	-12.8075
▁intr	-12.8079
▁xuy	-12.8106
▁vú	-12.8125
90	-12.8131
▁nhệ	-12.8135
xiu	-12.8141
reen	-12.8159
ỉ	-12.8164
▁.2	-12.818
▁vũi	-12.8203
▁kiền	-12.824
▁react	-12.8243
ỡng	-12.8288
ợp	-12.8289
hệ	-12.832
▁toi	-12.833
ton	-12.8334
▁sell	-12.8341
trick	-12.8354
▁pri	-12.8388
▁or	-12.8391
lem	-12.8441
47	-12.8477
▁lè	-12.8503
54	-12.8514
isen	-12.8525
▁charl	-12.8528
ber	-12.8529
▁hợ	-12.8566
▁cụng	-12.8567
▁ngổ	-12.8573
bc	-12.8583
▁tịn	-12.8611
▁zer	-12.8631
ger	-12.8643
▁fre	-12.8649
ềm	-12.8658
▁noi	-12.8692
▁hen	-12.8701
ap	-12.8778
anne	-12.8834
ak	-12.8856
▁đoạ	-12.8969
lu	-12.9004
atan	-12.9016
ve	-12.902
less	-12.9066
▁râ	-12.908
▁dua	-12.9115
▁min	-12.9121
▁vin	-12.9173
▁rom	-12.9175
▁ghe	-12.9183
80	-12.9184
▁jac	-12.921
▁big	-12.9211
stin	-12.9251
hốc	-12.9254
ùi	-12.9264
▁sar	-12.9265
hiều	-12.9268
▁44	-12.9272
og	-12.9283
ppines	-12.9291
ọi	-12.9296
ario	-12.9304
▁bla	-12.931
ks	-12.9312
ó	-12.9313
ớ	-12.9313
ăn	-12.9313
58	-12.9314
hara	-12.9316
ì	-12.932
▁-30	-12.9321
ử	-12.9329
▁khoá	-12.9337
ski	-12.9339
ẫu	-12.9345
▁700	-12.9348
box	-12.9348
star	-12.9348
ẵn	-12.935
các	-12.935
vert	-12.9352
cô	-12.9352
▁audi	-12.9353
▁fran	-12.9353
▁gaul	-12.9353
cập	-12.9353
▁lản	-12.9354
ixen	-12.9354
▁hăn	-12.9354
▁simon	-12.9354
ō	-12.9354
▁1909	-12.9354
▁antunai	-12.9354
▁brief	-12.9354
▁damocles	-12.9354
▁debut	-12.9354
▁dặp	-12.9354
▁fadishu	-12.9354
▁fatima	-12.9354
▁grow	-12.9354
▁gộp	-12.9354
▁janaki	-12.9354
▁jeannie	-12.9354
▁jordan	-12.9354
▁nicotin	-12.9354
▁pangtin	-12.9354
▁quỵ	-12.9354
▁resort	-12.9354
▁smart	-12.9354
▁smith	-12.9354
▁stephen	-12.9354
▁upgrade	-12.9354
▁week	-12.9354
▁javana	-12.9354
▁term	-12.9354
▁value	-12.9354
▁crowd	-12.9354
▁lifestyle	-12.9354
▁release	-12.9354
▁colombia	-12.9354
▁fair	-12.9354
▁trauma	-12.9354
▁oscar	-12.9354
▁proton	-12.9354
▁1991	-12.9354
▁giặn	-12.9354
▁foot	-12.9354
▁liếc	-12.9354
▁robert	-12.9354
▁oxy	-12.9354
▁upload	-12.9354
▁saulei	-12.9354
▁stud	-12.9354
▁ramayana	-12.9354
put	-12.9354
▁hangover	-12.9354
▁stand	-12.9354
▁hoẹ	-12.9354
▁neuron	-12.9354
raz	-12.9354
▁1966	-12.9354
▁boxing	-12.9354
▁building	-12.9354
▁anadette	-12.9354
▁biếu	-12.9354
▁covalen	-12.9354
▁kiro	-12.9354
▁1915	-12.9354
▁philipp	-12.9355
▁chốn	-12.9355
▁1981	-12.9355
▁expect	-12.9355
▁1858	-12.9355
▁balance	-12.9355
▁malak	-12.9355
▁2009	-12.9355
▁susan	-12.9355
▁1913	-12.9355
▁shad	-12.9355
▁giọc	-12.9355
▁zone	-12.9355
▁2006	-12.9355
▁sale	-12.9355
▁cova	-12.9355
▁1925	-12.9355
▁tróng	-12.9355
▁phượt	-12.9355
▁france	-12.9356
▁chĩnh	-12.9356
▁direct	-12.9356
▁rìa	-12.9356
hiêm	-12.9356
▁phấp	-12.9356
▁sạp	-12.9356
▁xiết	-12.9356
▁hector	-12.9356
▁giuốc	-12.9356
▁đẫn	-12.9356
▁giúc	-12.9357
▁film	-12.9357
▁dario	-12.9357
▁chóáng	-12.9357
▁trậm	-12.9357
▁amin	-12.9357
▁geh	-12.9358
▁líu	-12.9358
▁khủy	-12.9358
▁august	-12.9358
▁gấm	-12.9358
▁vibe	-12.9358
▁bẫu	-12.9358
▁nám	-12.9359
▁mĩa	-12.9359
▁bẹn	-12.9359
▁lặt	-12.9359
▁đọt	-12.9359
▁vuôn	-12.936
▁lẩm	-12.936
▁mix	-12.936
▁hấu	-12.9361
▁key	-12.9361
▁350	-12.9361
▁cali	-12.9362
▁nưu	-12.9362
▁nhẩm	-12.9362
▁rức	-12.9362
▁mậy	-12.9362
▁xuối	-12.9362
▁thèo	-12.9362
▁nập	-12.9363
▁sêm	-12.9364
▁xút	-12.9364
▁toanh	-12.9365
▁149	-12.9366
▁inai	-12.9366
▁lướng	-12.9366
▁hùi	-12.9367
▁cắc	-12.9367
▁cola	-12.9367
▁bủi	-12.9367
▁card	-12.9368
▁hard	-12.9368
▁clic	-12.9369
▁84	-12.937
▁102	-12.9372
▁nhăng	-12.9373
▁sất	-12.9374
▁bas	-12.9376
▁rôn	-12.9377
▁subi	-12.9377
▁tét	-12.9379
▁111	-12.9379
▁yêm	-12.938
▁kỉnh	-12.938
▁ball	-12.9387
▁ngói	-12.9396
▁mail	-12.9398
▁dếp	-12.9399
▁121	-12.9399
ãng	-12.9402
act	-12.9403
▁vatikano	-12.9408
▁chảnh	-12.9409
hi	-12.9409
qu	-12.9425
isha	-12.943
abr	-12.9437
jacque	-12.9442
cal	-12.9456
▁đôn	-12.9461
▁đáu	-12.9465
let	-12.9478
gi	-12.948
▁bọng	-12.9481
li	-12.9484
▁extr	-12.9487
▁hack	-12.9501
▁rèm	-12.9507
▁artis	-12.9507
▁giù	-12.9509
▁sy	-12.9511
▁điệt	-12.9514
▁nghịa	-12.9528
▁cỏi	-12.9533
▁nhẹt	-12.9543
ley	-12.9546
▁surviv	-12.9547
▁sp	-12.9552
▁mass	-12.9553
oài	-12.9555
▁hạm	-12.9568
▁nẻ	-12.9572
▁that	-12.9582
▁promot	-12.9583
no	-12.9586
▁193	-12.9591
ực	-12.9611
▁hê	-12.9624
▁miss	-12.9648
38	-12.9686
rain	-12.9687
▁khản	-12.9693
elip	-12.9716
ivate	-12.9719
omi	-12.9735
▁bịch	-12.9739
▁ngoa	-12.9749
▁her	-12.9759
jv	-12.976
▁sara	-12.978
ness	-12.9782
hắc	-12.9794
▁hó	-12.9795
sh	-12.9799
▁gp	-12.9808
▁ko	-12.9817
able	-12.9831
bat	-12.9842
▁thin	-12.9847
rạch	-12.9854
▁lia	-12.9858
oảng	-12.987
▁rôm	-12.9883
▁trảo	-12.9888
ọng	-12.9902
ừng	-12.9904
▁epi	-12.9926
▁edu	-12.9961
▁ngoà	-12.998
san	-13.0012
rab	-13.0014
▁mini	-13.0045
anh	-13.0065
▁sin	-13.0074
eat	-13.0101
salam	-13.0102
▁xú	-13.0175
▁sem	-13.0191
▁nhuộ	-13.0198
▁flex	-13.0232
lear	-13.0245
ast	-13.0249
59	-13.0258
rải	-13.026
ác	-13.0285
book	-13.0292
▁sã	-13.0292
▁cỗ	-13.0304
op	-13.0326
balo	-13.0346
▁nghẻ	-13.035
28	-13.0389
▁uni	-13.0399
dy	-13.0402
18	-13.0449
iu	-13.045
ph	-13.0453
▁havas	-13.0461
uyen	-13.0465
ào	-13.0465
fix	-13.0489
ánh	-13.0502
▁nhạn	-13.0511
hẩm	-13.0545
ish	-13.057
húng	-13.0585
▁pol	-13.063
hỉ	-13.0652
▁lớ	-13.0665
▁vằn	-13.0665
ồm	-13.0725
▁dr	-13.0751
▁tuế	-13.0762
▁yus	-13.0762
ros	-13.0764
▁hẹ	-13.08
▁,3	-13.0814
▁trự	-13.0818
sung	-13.0829
▁clo	-13.0846
▁gre	-13.0875
ôn	-13.0875
▁chữi	-13.0894
▁kèn	-13.0916
▁xụ	-13.0928
óng	-13.0933
▁dọ	-13.0934
tern	-13.0945
▁-18	-13.0974
sor	-13.0979
ưới	-13.0996
ạn	-13.1039
▁57	-13.1048
iết	-13.106
con	-13.1075
ico	-13.1085
sky	-13.1086
▁athe	-13.1086
300	-13.1092
oko	-13.1095
ikto	-13.1102
ĩnh	-13.1108
ảm	-13.1119
50	-13.1123
prov	-13.1127
▁alexand	-13.1156
tu	-13.1173
▁lap	-13.1208
▁97	-13.1223
thi	-13.1256
▁112	-13.1264
ơm	-13.1267
▁sc	-13.1267
▁black	-13.1281
ám	-13.1292
ơ	-13.1303
▁thàn	-13.1317
▁iya	-13.132
ẹ	-13.1328
ois	-13.1329
▁xỉn	-13.1329
▁proce	-13.1336
ắm	-13.1337
▁dà	-13.1339
▁74	-13.1343
ỹ	-13.1345
▁hand	-13.1345
▁xư	-13.1347
ful	-13.1347
style	-13.1348
self	-13.1348
kí	-13.1348
▁vự	-13.1348
sư	-13.1348
kì	-13.1349
▁trỏ	-13.1349
▁gừ	-13.1349
tag	-13.135
▁phỏ	-13.135
▁nghì	-13.1351
0%	-13.1351
come	-13.1351
▁medi	-13.1352
ặm	-13.1352
▁sỏ	-13.1353
load	-13.1354
▁găn	-13.1354
▁giacob	-13.1354
▁1788	-13.1354
▁1907	-13.1354
▁authentic	-13.1354
▁biray	-13.1354
▁cappuccino	-13.1354
▁communication	-13.1354
▁doraemon	-13.1354
▁fadishil	-13.1354
▁giosuê	-13.1354
▁global	-13.1354
▁harvard	-13.1354
▁hibiscus	-13.1354
▁influencer	-13.1354
▁istanbul	-13.1354
▁kandê	-13.1354
▁margarita	-13.1354
▁medea	-13.1354
▁munich	-13.1354
▁numerology	-13.1354
▁perfect	-13.1354
▁reach	-13.1354
▁remake	-13.1354
▁service	-13.1354
▁stylist	-13.1354
▁surinam	-13.1354
▁tutsi	-13.1354
▁vatican	-13.1354
▁yisū	-13.1354
▁yorub	-13.1354
▁tophet	-13.1354
▁whatever	-13.1354
▁who	-13.1354
▁waste	-13.1354
▁elisha	-13.1354
▁pandora	-13.1354
▁startup	-13.1354
▁1993	-13.1354
▁1979	-13.1354
▁class	-13.1354
▁hitler	-13.1354
▁twist	-13.1354
▁etc	-13.1354
▁with	-13.1354
▁kiếu	-13.1354
▁trans	-13.1354
▁1973	-13.1354
▁deliver	-13.1354
▁galler	-13.1354
▁pitch	-13.1354
▁town	-13.1354
▁yixi	-13.1354
▁dark	-13.1354
▁keep	-13.1354
▁,9	-13.1354
▁hobby	-13.1354
▁miếc	-13.1354
▁bẫng	-13.1354
▁havasup	-13.1354
▁report	-13.1354
▁1972	-13.1355
▁memor	-13.1355
▁monster	-13.1355
▁oách	-13.1355
▁2023	-13.1355
▁valentine	-13.1355
▁kut	-13.1355
▁.600	-13.1355
▁nebo	-13.1355
▁indie	-13.1355
▁alas	-13.1355
auto	-13.1355
▁rịa	-13.1355
▁cook	-13.1355
▁kenne	-13.1355
▁credit	-13.1355
▁1897	-13.1355
▁sales	-13.1355
▁uỷ	-13.1355
▁shocker	-13.1356
▁trắn	-13.1356
▁tere	-13.1356
▁very	-13.1356
▁tono	-13.1356
▁quầy	-13.1356
▁super	-13.1356
▁quây	-13.1356
▁jonah	-13.1356
▁giựt	-13.1356
▁nhuyễn	-13.1356
▁away	-13.1356
▁lịa	-13.1356
▁địp	-13.1357
▁ova	-13.1357
▁rout	-13.1357
▁galileo	-13.1357
▁170	-13.1358
▁lago	-13.1358
▁anve	-13.1358
▁rich	-13.1358
▁trớn	-13.1358
▁khoán	-13.1359
▁poster	-13.1359
▁huất	-13.1359
▁quỡ	-13.1359
▁sụt	-13.136
▁mản	-13.136
▁biễn	-13.136
▁visa	-13.136
▁117	-13.136
▁low	-13.1361
▁dặt	-13.1361
▁rep	-13.1361
▁soán	-13.1361
▁khanh	-13.1362
▁ngợm	-13.1362
▁gáo	-13.1362
▁chocola	-13.1362
▁jan	-13.1362
▁ngáy	-13.1362
▁hec	-13.1362
▁gám	-13.1362
▁phàn	-13.1363
▁pic	-13.1363
▁suôn	-13.1363
▁same	-13.1363
▁dứa	-13.1363
▁85	-13.1363
▁pick	-13.1363
latin	-13.1363
▁nus	-13.1364
sabe	-13.1364
▁hero	-13.1365
▁gôm	-13.1365
▁ruộc	-13.1366
▁rúa	-13.1366
▁miện	-13.1366
▁rùng	-13.1367
▁tea	-13.1369
▁sex	-13.1369
▁lòe	-13.1371
salom	-13.1371
▁118	-13.1371
▁chile	-13.1372
▁nhổn	-13.1372
▁83	-13.1374
▁loáng	-13.1375
▁ngộp	-13.1377
▁vòn	-13.1377
▁antin	-13.1377
▁night	-13.1378
unes	-13.1379
▁bam	-13.1381
▁ngơn	-13.1381
▁pin	-13.1382
▁gành	-13.1388
▁awar	-13.1391
▁chánh	-13.1391
▁sước	-13.1391
ishu	-13.1393
anca	-13.1397
▁bari	-13.1401
▁lôn	-13.1403
km	-13.141
▁lít	-13.141
ther	-13.1416
49	-13.1423
▁cúm	-13.1423
zu	-13.1428
day	-13.1439
eur	-13.1442
▁thự	-13.1449
▁clich	-13.1455
▁present	-13.1467
▁vệnh	-13.1468
▁binz	-13.148
▁vản	-13.1482
ộn	-13.1482
▁điê	-13.1487
▁risk	-13.1488
▁pham	-13.1488
▁trịch	-13.151
▁ké	-13.1522
84	-13.1529
he	-13.1538
▁sảnh	-13.1539
▁sham	-13.1545
▁think	-13.1546
▁phang	-13.1556
cip	-13.157
rre	-13.1579
▁tòi	-13.1594
ươn	-13.1596
huyễn	-13.1603
▁lea	-13.162
spect	-13.1628
▁athen	-13.163
▁shopp	-13.1655
▁đổng	-13.1695
▁soa	-13.1721
dan	-13.1733
▁dả	-13.1745
ợn	-13.1754
iển	-13.1757
55	-13.1764
ỗ	-13.1783
32	-13.1796
cope	-13.1797
▁benga	-13.1808
▁kè	-13.1808
▁om	-13.1829
▁dộ	-13.1832
▁mino	-13.1837
gram	-13.1846
mon	-13.1849
ior	-13.1886
▁gif	-13.189
learn	-13.1891
33	-13.1906
▁khủ	-13.1911
▁vietnamese	-13.1921
ùng	-13.1922
▁head	-13.1937
▁lak	-13.1996
rry	-13.2023
▁stre	-13.2028
▁slo	-13.2046
▁anal	-13.2055
ang	-13.2064
wit	-13.2066
▁buộ	-13.2107
gon	-13.2109
▁ré	-13.2132
uần	-13.2141
iêm	-13.2143
▁rì	-13.2184
ard	-13.2184
▁pu	-13.2185
cher	-13.2212
▁phèn	-13.2216
▁shi	-13.2229
▁alexandr	-13.2236
ign	-13.2259
▁bêng	-13.2272
gáy	-13.2287
ki	-13.229
uẩn	-13.2338
▁us	-13.2339
▁chử	-13.2339
92	-13.2347
▁fa	-13.2353
ble	-13.2398
▁see	-13.242
▁yô	-13.2441
ộng	-13.2443
▁-12	-13.2468
▁cồ	-13.248
▁fil	-13.2509
▁fu	-13.2519
yout	-13.2545
▁ber	-13.2553
rin	-13.2564
▁sto	-13.2586
ana	-13.2593
▁res	-13.2635
▁sha	-13.2647
save	-13.2658
▁haver	-13.2665
▁khố	-13.2718
▁khé	-13.2725
tro	-13.273
▁elo	-13.2739
▁ang	-13.275
▁dam	-13.276
reo	-13.2785
ổ	-13.2785
sis	-13.2788
▁tĩ	-13.2823
ij	-13.2857
▁minis	-13.2859
▁nhe	-13.2901
▁quạc	-13.2905
▁wil	-13.291
▁ngé	-13.2911
zz	-13.2916
ur	-13.2938
ram	-13.2945
lor	-13.2946
wif	-13.2981
▁nấ	-13.2986
35	-13.3006
29	-13.306
▁alexan	-13.3077
ies	-13.3086
bien	-13.3107
▁pat	-13.3113
inh	-13.3121
ori	-13.3123
nia	-13.3129
▁phil	-13.3137
ila	-13.3141
▁mậ	-13.3142
gen	-13.3166
▁dốn	-13.317
▁reco	-13.3176
king	-13.3198
▁cast	-13.32
lie	-13.3218
ơi	-13.3253
phan	-13.3286
ịu	-13.331
▁pos	-13.3313
▁liến	-13.3329
ản	-13.3341
▁bẹ	-13.3351
▁pan	-13.3372
ride	-13.3396
iver	-13.3433
▁write	-13.3434
▁wo	-13.3461
sset	-13.3468
mber	-13.3471
31	-13.3476
ff	-13.3495
▁ob	-13.3513
stan	-13.3535
▁xạc	-13.3539
hua	-13.3539
▁nil	-13.3546
ảo	-13.3553
▁140	-13.3556
ĩ	-13.359
▁phư	-13.36
gue	-13.3611
nnes	-13.3628
tus	-13.3636
ổi	-13.3637
roll	-13.3656
▁116	-13.3685
▁.1	-13.3701
45	-13.3711
ịa	-13.3718
▁81	-13.3723
ming	-13.3731
▁fo	-13.374
ịnh	-13.3753
scar	-13.3787
oice	-13.3804
tter	-13.3816
▁quẩ	-13.3816
bai	-13.3822
áp	-13.3823
õ	-13.3823
ound	-13.3824
ira	-13.3825
▁shop	-13.3827
ves	-13.383
han	-13.3837
▁bor	-13.3839
tar	-13.3844
▁đự	-13.3846
fund	-13.3847
kháp	-13.3848
thì	-13.3848
bu	-13.3848
▁loá	-13.3849
kito	-13.3849
asso	-13.3849
card	-13.3849
▁phò	-13.3849
▁steve	-13.385
▁chris	-13.3851
▁huỳ	-13.3853
rro	-13.3853
uả	-13.3853
▁pharao	-13.3853
▁mĩ	-13.3854
▁chuồn	-13.3854
▁quăn	-13.3854
▁carbon	-13.3854
▁heavys	-13.3854
movassan	-13.3854
ç	-13.3854
▁1902	-13.3854
▁abhinango	-13.3854
▁american	-13.3854
▁batman	-13.3854
▁bieber	-13.3854
▁biome	-13.3854
▁dopamine	-13.3854
▁function	-13.3854
▁goscign	-13.3854
▁haruki	-13.3854
▁houtu	-13.3854
▁khepron	-13.3854
▁knowledge	-13.3854
▁korahab	-13.3854
▁material	-13.3854
▁myanmar	-13.3854
▁nagasaki	-13.3854
▁negative	-13.3854
▁okfy	-13.3854
▁packaging	-13.3854
▁pharishil	-13.3854
▁rubik	-13.3854
▁salonika	-13.3854
▁science	-13.3854
▁sepulveda	-13.3854
▁short	-13.3854
▁sifonia	-13.3854
▁strateg	-13.3854
▁suneim	-13.3854
▁vietika	-13.3854
▁writing	-13.3854
▁barrier	-13.3854
▁entertainment	-13.3854
▁junior	-13.3854
▁nabuchonu	-13.3854
▁sechop	-13.3854
▁yudha	-13.3854
▁joseph	-13.3854
▁lazarus	-13.3854
▁nikolaicic	-13.3854
▁pursu	-13.3854
▁richard	-13.3854
manuel	-13.3854
▁standard	-13.3854
robo	-13.3854
▁yerussal	-13.3854
▁london	-13.3854
▁malach	-13.3854
▁hanoi	-13.3854
▁wiki	-13.3854
▁wick	-13.3854
▁eizal	-13.3854
▁tony	-13.3854
▁carbonic	-13.3854
▁jude	-13.3854
▁handle	-13.3854
▁muỗng	-13.3854
▁delay	-13.3854
enmark	-13.3854
▁motivat	-13.3854
▁1976	-13.3854
▁brad	-13.3854
▁timeless	-13.3854
quir	-13.3854
▁iphone	-13.3854
▁cell	-13.3854
▁holl	-13.3854
▁june	-13.3854
▁1997	-13.3854
▁quíu	-13.3854
▁member	-13.3854
▁aycap	-13.3855
▁cult	-13.3855
▁israen	-13.3855
▁1875	-13.3855
▁,4	-13.3855
▁usd	-13.3855
▁xoã	-13.3855
▁isra	-13.3855
▁sidon	-13.3855
ikop	-13.3855
▁1802	-13.3855
▁1534	-13.3855
storm	-13.3855
▁jesu	-13.3855
▁teen	-13.3855
▁block	-13.3855
▁pharaoh	-13.3855
▁1998	-13.3855
▁five	-13.3855
▁hanna	-13.3855
▁ephra	-13.3855
▁normal	-13.3855
▁founder	-13.3855
▁1970	-13.3856
▁moon	-13.3856
▁nuông	-13.3856
▁jack	-13.3856
▁rixen	-13.3856
▁alsto	-13.3856
▁1912	-13.3856
▁xoạn	-13.3856
▁-14	-13.3856
▁pre	-13.3856
▁1951	-13.3856
▁quẳng	-13.3856
▁fla	-13.3856
▁sodom	-13.3856
▁-66	-13.3857
▁2013	-13.3857
▁michel	-13.3857
▁gạn	-13.3857
▁gala	-13.3857
▁move	-13.3857
▁span	-13.3857
▁1904	-13.3857
▁2025	-13.3857
▁dề	-13.3857
▁tè	-13.3857
▁1054	-13.3858
▁bloo	-13.3858
▁100%	-13.3858
▁truyến	-13.3858
uman	-13.3858
▁kat	-13.3858
pé	-13.3858
▁đẩm	-13.3858
▁197	-13.3858
▁ear	-13.3858
▁hẫn	-13.3859
vot	-13.3859
▁know	-13.3859
▁cal	-13.3859
▁sub	-13.3859
▁del	-13.3859
▁now	-13.3859
▁baby	-13.386
▁175	-13.386
bam	-13.386
▁bệch	-13.386
▁cạm	-13.386
▁xắn	-13.386
▁thóp	-13.3863
▁sera	-13.3863
▁comme	-13.3863
▁mean	-13.3863
▁chắp	-13.3864
▁chuốt	-13.3864
▁giốt	-13.3864
▁sần	-13.3864
▁xấm	-13.3864
▁cộn	-13.3865
▁phét	-13.3865
xin	-13.3865
▁trện	-13.3865
▁chẩn	-13.3866
▁comp	-13.3866
▁rạt	-13.3866
▁mist	-13.3867
▁tuột	-13.3867
▁match	-13.3867
▁lổi	-13.3867
▁sướp	-13.3867
▁ander	-13.3868
▁hana	-13.3868
▁seth	-13.3869
mana	-13.3869
▁nớp	-13.387
▁gát	-13.387
▁six	-13.3871
▁nốc	-13.3873
▁xánh	-13.3873
pal	-13.3873
▁vầm	-13.3873
ling	-13.3875
▁hoạm	-13.3876
▁mịnh	-13.3876
▁reflect	-13.3878
▁bitch	-13.3879
▁proc	-13.3881
ainst	-13.3882
▁trùi	-13.3884
▁52	-13.3884
▁os	-13.3884
fi	-13.3887
▁130	-13.3889
▁lọng	-13.3892
ract	-13.3892
▁rủa	-13.3893
▁bương	-13.3893
▁amn	-13.3895
tri	-13.3896
▁map	-13.3897
▁jose	-13.3904
▁bui	-13.3904
uver	-13.3904
▁lồn	-13.3905
▁let	-13.3909
▁bóch	-13.3914
▁kệt	-13.3916
ct	-13.3918
wee	-13.3921
▁line	-13.3921
▁ngãn	-13.3922
▁gang	-13.3924
▁'	-13.3925
▁annam	-13.3932
▁hạp	-13.3941
vers	-13.3944
adya	-13.3948
▁tips	-13.3955
rand	-13.3958
cus	-13.3965
▁ign	-13.397
▁dỗi	-13.3971
kim	-13.3974
▁vảnh	-13.3976
▁dỗng	-13.3977
▁chain	-13.3979
▁mùn	-13.3992
▁israele	-13.4012
lan	-13.4015
▁ngộng	-13.4018
▁mộn	-13.4035
ice	-13.4039
72	-13.404
▁uxu	-13.4041
chi	-13.4046
▁lác	-13.4046
▁market	-13.4049
▁hổn	-13.4049
uồn	-13.406
opin	-13.4076
nego	-13.4078
tôn	-13.4087
▁diề	-13.4094
▁bit	-13.4103
▁gũ	-13.4108
bourg	-13.411
riah	-13.4116
▁giự	-13.4122
▁tùn	-13.4129
▁trụm	-13.414
gger	-13.4145
road	-13.4151
int	-13.4163
▁chờt	-13.4164
riti	-13.42
▁env	-13.421
ija	-13.4221
▁door	-13.4224
15	-13.4224
use	-13.4249
▁xố	-13.4263
stal	-13.4278
▁ud	-13.4279
▁roo	-13.4286
che	-13.4306
tay	-13.4308
bo	-13.4316
don	-13.4317
▁sati	-13.4319
▁impress	-13.4328
▁curat	-13.4329
uda	-13.4341
▁khoanh	-13.4372
uý	-13.4406
▁sõ	-13.4449
chad	-13.4468
ese	-13.4478
ite	-13.4479
▁188	-13.4492
▁hộn	-13.4495
ception	-13.4499
ino	-13.4514
huyến	-13.4516
ouch	-13.4519
▁gui	-13.4522
▁cor	-13.4534
▁thá	-13.4588
▁ord	-13.4624
▁ji	-13.4635
huộm	-13.4647
onia	-13.4656
▁yuse	-13.4699
ura	-13.4711
▁dỏ	-13.4741
tation	-13.4745
ho	-13.4764
writer	-13.4771
ilit	-13.4774
▁só	-13.4786
era	-13.4805
▁hara	-13.482
▁hơ	-13.484
▁act	-13.4875
rt	-13.4886
▁mart	-13.4905
iền	-13.4932
ire	-13.4947
ode	-13.4953
▁sữ	-13.4995
izz	-13.5015
▁sạ	-13.5022
yr	-13.503
ez	-13.5044
▁,1	-13.5056
rum	-13.5058
ơn	-13.5068
▁wi	-13.5079
▁viế	-13.5152
mino	-13.5162
mental	-13.5173
shi	-13.5177
oli	-13.5194
mbo	-13.5201
hash	-13.5245
▁.7	-13.5255
ney	-13.5259
▁nõ	-13.5273
▁far	-13.5278
ill	-13.528
logger	-13.5297
ắng	-13.5298
aves	-13.5315
▁constant	-13.5327
ze	-13.5344
hip	-13.5349
▁gố	-13.536
ition	-13.5371
▁rón	-13.5371
▁clea	-13.538
fe	-13.5387
ere	-13.5388
istan	-13.539
ị	-13.5403
ùn	-13.5413
ampa	-13.5419
urak	-13.5423
vin	-13.5448
ident	-13.5523
uỗi	-13.5571
▁wa	-13.5579
▁lự	-13.5583
▁nư	-13.5605
eme	-13.5605
▁dứ	-13.5643
liver	-13.5645
▁she	-13.5672
▁giố	-13.5676
ạp	-13.5682
▁164	-13.5729
rity	-13.5737
▁domin	-13.5755
lot	-13.5756
▁vía	-13.5757
ero	-13.5781
▁cụn	-13.579
set	-13.5833
sy	-13.5905
▁cốn	-13.5914
ona	-13.5914
▁av	-13.5917
▁thiế	-13.5928
▁ná	-13.5932
end	-13.5939
▁quắ	-13.5961
▁acc	-13.5975
▁chẹ	-13.5984
▁â	-13.5985
▁khuế	-13.5989
34	-13.6021
bum	-13.6022
▁nas	-13.6041
hám	-13.606
àn	-13.6071
led	-13.6101
▁nố	-13.6117
▁just	-13.6122
isie	-13.614
▁huôn	-13.6142
lê	-13.6153
gap	-13.6164
▁-1	-13.6177
▁trich	-13.6181
▁bủ	-13.6187
edom	-13.6197
▁ref	-13.6201
rụi	-13.6215
ếu	-13.6222
▁vịn	-13.6231
▁ver	-13.6247
ally	-13.6252
aining	-13.6254
▁carr	-13.628
▁yan	-13.628
õi	-13.6306
▁mự	-13.6348
òn	-13.637
èn	-13.6382
ep	-13.6385
ren	-13.6407
cha	-13.6415
▁sir	-13.6415
tras	-13.6467
▁ruồ	-13.6474
▁muồn	-13.649
▁yis	-13.6512
▁rin	-13.6523
lott	-13.6546
meme	-13.6581
ộm	-13.6612
tic	-13.6625
▁sồn	-13.6633
ption	-13.6636
▁xù	-13.665
ty	-13.6657
cu	-13.6674
hị	-13.6679
▁ché	-13.6702
uốn	-13.6711
▁chuy	-13.6735
ile	-13.6748
el	-13.678
▁rượn	-13.6782
die	-13.6784
▁start	-13.6787
▁ever	-13.6792
orwa	-13.6795
▁dộn	-13.6796
▁khan	-13.681
▁too	-13.6829
▁train	-13.6845
dia	-13.686
goi	-13.6861
van	-13.6862
▁mar	-13.6896
ord	-13.6936
▁kon	-13.6944
▁chin	-13.6957
▁trư	-13.696
su	-13.6967
▁ngứ	-13.6993
ke	-13.7002
▁ak	-13.7002
enk	-13.7011
uss	-13.7013
▁isai	-13.7023
▁78	-13.7027
16	-13.7033
▁matt	-13.7052
à	-13.7052
urve	-13.7063
ste	-13.7063
▁vatikan	-13.7071
▁char	-13.7102
ga	-13.7109
ubir	-13.7111
▁125	-13.7121
oái	-13.7124
á	-13.7125
seh	-13.7128
hậm	-13.7128
nji	-13.713
▁ngọ	-13.7137
▁pie	-13.7138
ồ	-13.7142
▁trớ	-13.7143
▁mid	-13.7145
▁solo	-13.7145
í	-13.7148
ủ	-13.7151
ụ	-13.7152
ũ	-13.7154
▁107	-13.7161
▁69	-13.7166
rack	-13.7167
cation	-13.7172
▁yud	-13.7173
▁spa	-13.7174
ẳn	-13.718
wor	-13.718
know	-13.7181
just	-13.7181
đê	-13.7181
graph	-13.7181
life	-13.7181
hell	-13.7181
ever	-13.7181
play	-13.7181
đi	-13.7181
sứ	-13.7181
link	-13.7182
read	-13.7182
nhí	-13.7183
gustin	-13.7183
win	-13.7183
file	-13.7183
onstantin	-13.7183
gne	-13.7184
boy	-13.7184
fol	-13.7185
▁nikol	-13.7185
eremia	-13.7186
havi	-13.7186
iễm	-13.7187
▁đẳn	-13.7187
▁joke	-13.7187
▁practic	-13.7187
▁collect	-13.7187
▁fowl	-13.7187
ffic	-13.7187
ü	-13.7187
?	-13.7187
féli	-13.7187
isthen	-13.7187
ö	-13.7187
▁agree	-13.7187
▁alaco	-13.7187
▁algeri	-13.7187
▁algorithm	-13.7187
▁angoma	-13.7187
▁antoine	-13.7187
▁bikerno	-13.7187
▁cross	-13.7187
▁daddy	-13.7187
▁dynamic	-13.7187
▁ejekien	-13.7187
▁feature	-13.7187
▁friend	-13.7187
▁fulfill	-13.7187
▁gadara	-13.7187
▁galaat	-13.7187
▁hippery	-13.7187
▁hitmakers	-13.7187
▁irene	-13.7187
▁jacob	-13.7187
▁judge	-13.7187
▁knock	-13.7187
▁madeleine	-13.7187
▁problem	-13.7187
▁publish	-13.7187
▁secret	-13.7187
▁seleuco	-13.7187
▁senbisen	-13.7187
▁signature	-13.7187
▁sketch	-13.7187
▁struggle	-13.7187
▁stéphanaux	-13.7187
▁toxic	-13.7187
▁tởm	-13.7187
▁vatikon	-13.7187
▁vitalin	-13.7187
▁whiskey	-13.7187
▁www	-13.7187
▁yahweh	-13.7187
▁yisou	-13.7187
▁yurusalem	-13.7187
▁ụt	-13.7187
▁benjamin	-13.7187
▁success	-13.7187
▁comedian	-13.7187
▁destination	-13.7187
▁nambukono	-13.7187
▁odd	-13.7187
▁package	-13.7187
▁prepar	-13.7187
▁rabbi	-13.7187
▁shift	-13.7187
▁sopho	-13.7187
▁yuki	-13.7187
▁1285	-13.7187
▁express	-13.7187
▁passionate	-13.7187
▁attract	-13.7187
▁erodide	-13.7187
▁instant	-13.7187
▁korea	-13.7187
▁boot	-13.7187
▁brow	-13.7187
▁celebrity	-13.7187
▁linda	-13.7187
▁metasan	-13.7187
▁admin	-13.7187
▁boche	-13.7187
▁boom	-13.7187
▁havasep	-13.7187
obbi	-13.7187
▁fake	-13.7187
▁nazia	-13.7187
konono	-13.7187
▁billie	-13.7187
▁copywriter	-13.7187
▁lgbtq	-13.7187
ciate	-13.7187
▁animal	-13.7187
▁kuk	-13.7187
▁teenage	-13.7187
▁excit	-13.7188
▁niche	-13.7188
▁paus	-13.7188
▁luộm	-13.7188
▁mediba	-13.7188
imele	-13.7188
▁stressful	-13.7188
▁luộn	-13.7188
▁exte	-13.7188
▁macke	-13.7188
▁julie	-13.7188
▁forum	-13.7188
▁karen	-13.7188
▁homo	-13.7188
▁miller	-13.7188
▁silo	-13.7188
▁therapy	-13.7188
▁manager	-13.7188
▁1870	-13.7188
▁peter	-13.7188
▁galax	-13.7188
▁great	-13.7188
▁spot	-13.7188
▁amén	-13.7188
▁gaza	-13.7188
▁editor	-13.7188
▁commit	-13.7188
▁ammoniac	-13.7188
▁yudalu	-13.7188
▁naga	-13.7188
▁ops	-13.7188
▁phero	-13.7188
rik	-13.7188
▁1937	-13.7188
▁lej	-13.7188
▁huồn	-13.7188
▁fuji	-13.7188
▁nghẽ	-13.7189
▁1956	-13.7189
hael	-13.7189
▁ámbu	-13.7189
▁year	-13.7189
▁1831	-13.7189
▁wel	-13.7189
▁1932	-13.7189
▁offic	-13.7189
▁1624	-13.7189
tect	-13.7189
▁myka	-13.7189
▁human	-13.7189
▁help	-13.7189
▁polit	-13.7189
▁chềm	-13.7189
dle	-13.7189
▁path	-13.719
▁face	-13.719
▁fact	-13.719
▁russ	-13.719
▁girls	-13.719
▁tivi	-13.719
▁our	-13.719
▁every	-13.719
maha	-13.719
▁bill	-13.719
▁tuồn	-13.719
▁amine	-13.719
▁1887	-13.719
▁kind	-13.719
gori	-13.719
▁2004	-13.719
▁-70	-13.719
▁đẵng	-13.719
siste	-13.719
▁antoni	-13.7191
▁triem	-13.7191
pton	-13.7192
▁phập	-13.7192
▁yxen	-13.7192
▁jeremias	-13.7192
este	-13.7192
▁thạng	-13.7192
▁heal	-13.7192
▁gạc	-13.7192
▁christ	-13.7192
lf	-13.7192
nàng	-13.7193
erubi	-13.7193
cúc	-13.7193
range	-13.7193
▁kam	-13.7193
▁launch	-13.7193
cle	-13.7193
foco	-13.7193
▁engage	-13.7193
▁shot	-13.7193
▁wy	-13.7194
vana	-13.7194
▁pien	-13.7194
▁rựa	-13.7194
itin	-13.7194
▁saba	-13.7194
▁rob	-13.7195
▁chậu	-13.7195
offe	-13.7195
commen	-13.7196
▁trứa	-13.7196
▁giép	-13.7196
▁cow	-13.7196
cket	-13.7196
▁more	-13.7196
tract	-13.7196
▁crew	-13.7196
tow	-13.7197
▁tuý	-13.7197
▁clar	-13.7197
▁119	-13.7197
▁balas	-13.7197
▁phiện	-13.7197
sao	-13.7197
▁lỉa	-13.7198
▁zeo	-13.7198
▁hoạc	-13.7198
▁nort	-13.7198
▁bụn	-13.7198
▁605	-13.7199
▁adan	-13.72
▁cở	-13.72
▁truyên	-13.72
▁red	-13.72
▁giớt	-13.72
geli	-13.72
gat	-13.72
▁chỡ	-13.7201
▁dợn	-13.7201
▁stone	-13.7201
▁ou	-13.7201
▁thank	-13.7201
lend	-13.7201
▁lẹt	-13.7201
▁rùn	-13.7202
uttha	-13.7202
▁fancik	-13.7202
▁lee	-13.7202
▁vắn	-13.7202
▁twi	-13.7203
ler	-13.7203
▁tèo	-13.7204
▁interna	-13.7204
▁carey	-13.7205
▁asia	-13.7205
▁deb	-13.7205
17	-13.7205
ify	-13.7206
▁sụng	-13.7207
by	-13.7208
▁hùn	-13.7209
▁syri	-13.7209
1945	-13.721
▁rele	-13.721
▁xướng	-13.7212
▁lụn	-13.7213
pedi	-13.7214
▁dảnh	-13.7219
▁nhót	-13.7224
▁xến	-13.7225
▁yeru	-13.7225
▁ret	-13.7225
▁trendy	-13.7226
▁dét	-13.7227
▁trun	-13.7227
▁exp	-13.7227
ian	-13.7229
stic	-13.7231
▁yer	-13.7232
▁bẫm	-13.7233
▁sion	-13.7234
prin	-13.7236
carl	-13.7238
ist	-13.7241
▁fund	-13.7241
acci	-13.7243
▁bỉm	-13.7246
rake	-13.7247
▁chiêng	-13.7248
▁sọn	-13.7249
▁sội	-13.7249
▁fm	-13.725
▁baba	-13.7251
▁comm	-13.7251
bay	-13.7252
▁hoạng	-13.7252
▁war	-13.7254
▁mois	-13.7259
tier	-13.7263
dap	-13.7263
▁túp	-13.7267
▁ez	-13.7269
▁nháp	-13.7274
ul	-13.7276
ustr	-13.7279
elly	-13.728
37	-13.7281
ille	-13.7282
▁110	-13.7284
▁ira	-13.729
▁suyên	-13.7293
42	-13.7294
umb	-13.7296
▁búi	-13.7297
hon	-13.7299
odcast	-13.73
ication	-13.73
▁seng	-13.7305
rang	-13.7306
▁fro	-13.7308
▁op	-13.731
▁mán	-13.7311
▁quầng	-13.7311
ili	-13.7313
ienne	-13.7315
▁fallo	-13.732
tage	-13.7327
▁mari	-13.7333
▁nọt	-13.7354
▁ngộn	-13.7355
▁ax	-13.7356
▁activ	-13.7357
▁nháo	-13.7365
▁as	-13.7386
▁thịp	-13.7411
rate	-13.7419
▁yosu	-13.742
▁trụy	-13.7421
▁minimal	-13.7426
▁walki	-13.7433
▁inc	-13.7438
him	-13.7446
▁gate	-13.7446
rận	-13.7474
▁cửn	-13.7478
hôn	-13.7479
df	-13.7482
▁cỏn	-13.7483
▁this	-13.7484
andom	-13.7516
artel	-13.7546
▁ital	-13.7553
▁india	-13.7561
des	-13.7562
▁wie	-13.7563
▁choán	-13.7568
▁wide	-13.7577
way	-13.7587
▁blue	-13.7595
inem	-13.7599
ahab	-13.7605
▁quài	-13.7627
▁elen	-13.7632
store	-13.7635
▁bern	-13.7641
ama	-13.7651
▁sid	-13.7663
ọa	-13.7673
▁avi	-13.7681
▁ted	-13.7689
▁phốt	-13.7691
▁integrat	-13.7697
▁nhộ	-13.7698
húc	-13.7711
uy	-13.7736
▁đổn	-13.7746
▁sof	-13.7754
▁ngủn	-13.7754
▁hiki	-13.7833
▁alen	-13.7836
▁mons	-13.784
ener	-13.784
▁ele	-13.7862
▁any	-13.7889
▁diê	-13.79
▁189	-13.7914
ỗng	-13.7922
ipad	-13.7927
ily	-13.7961
▁carra	-13.7986
600	-13.7989
ti	-13.8013
▁missi	-13.8022
▁sốn	-13.8046
hồi	-13.8052
▁ice	-13.8054
▁đũ	-13.8056
▁sira	-13.8057
dom	-13.8065
▁pani	-13.8071
▁chõ	-13.8079
▁lử	-13.8081
▁kang	-13.8088
ạm	-13.8104
ork	-13.8112
▁zi	-13.8116
▁rự	-13.8124
hiêu	-13.8139
▁fanc	-13.8165
▁chip	-13.8183
laz	-13.8202
▁cã	-13.8264
antino	-13.8318
ide	-13.8325
▁galil	-13.8334
95	-13.8355
▁siên	-13.837
▁192	-13.8388
pe	-13.8405
ward	-13.8411
▁-19	-13.846
ẹn	-13.8469
▁thè	-13.8497
ourd	-13.8518
bia	-13.8539
ntain	-13.8545
▁cổn	-13.8576
sak	-13.8614
▁cande	-13.8616
06	-13.8617
ạnh	-13.8621
go	-13.863
nozo	-13.8665
ato	-13.8686
▁kid	-13.8698
mel	-13.8724
ple	-13.878
uông	-13.8784
oce	-13.8785
▁manage	-13.8791
cam	-13.8811
w	-13.8821
over	-13.8824
ala	-13.8844
▁moni	-13.8846
▁hol	-13.8863
▁mora	-13.8875
▁bursk	-13.8887
arm	-13.8892
wu	-13.8911
last	-13.8927
risi	-13.8934
male	-13.8945
▁found	-13.898
hững	-13.9008
tlen	-13.9048
au	-13.9057
fore	-13.9069
▁sula	-13.9099
23	-13.91
ual	-13.9106
mba	-13.9147
nna	-13.9153
ito	-13.9189
86	-13.9192
uôi	-13.9198
520	-13.9218
hằm	-13.9222
ọn	-13.9226
▁dance	-13.9237
▁rêm	-13.9251
om	-13.928
cit	-13.9312
▁dùn	-13.932
▁nị	-13.9341
▁yam	-13.9376
▁rỉ	-13.9376
eline	-13.9402
▁rỏ	-13.9443
pu	-13.9446
lisa	-13.9455
ers	-13.9503
aster	-13.9512
unit	-13.9583
tune	-13.9619
▁khuả	-13.9639
▁dõ	-13.967
▁santa	-13.9682
ja	-13.9684
tive	-13.9718
▁đoà	-13.9754
▁nghê	-13.9758
iet	-13.9775
si	-13.9791
sse	-13.9807
reat	-13.9824
▁đĩ	-13.9838
▁sat	-13.9851
▁marian	-13.9858
▁riê	-13.9871
▁sou	-13.9917
ative	-13.992
nce	-13.9966
ora	-13.9998
▁phè	-14.0027
▁vố	-14.0032
rút	-14.0064
▁185	-14.0074
are	-14.0116
ser	-14.0132
action	-14.0133
▁dea	-14.0138
▁păn	-14.0148
ov	-14.0161
▁ste	-14.0186
▁aqu	-14.0193
ửi	-14.0203
▁amo	-14.0237
66	-14.0241
hĩnh	-14.0262
is	-14.0274
▁huên	-14.0285
ky	-14.0307
zi	-14.034
pl	-14.0345
lo	-14.0346
▁dồ	-14.0348
tee	-14.04
▁thố	-14.0426
me	-14.0435
ười	-14.0452
▁đậ	-14.047
yca	-14.056
▁appr	-14.0563
ses	-14.0588
▁khoả	-14.0601
wing	-14.0652
rpo	-14.0678
eu	-14.0679
▁trứ	-14.071
▁cãn	-14.0738
▁ar	-14.0738
▁đợ	-14.0753
▁lị	-14.0754
ack	-14.0757
ot	-14.0779
ouv	-14.078
hy	-14.0798
▁167	-14.0804
tera	-14.0825
asy	-14.0829
▁gali	-14.0832
ũi	-14.0849
▁bra	-14.0884
wa	-14.0893
▁trỉ	-14.094
▁ind	-14.0973
▁hur	-14.0995
hường	-14.0999
▁jol	-14.1011
xa	-14.1031
▁moi	-14.1048
tual	-14.1055
mos	-14.1068
ếng	-14.1089
men	-14.1094
▁bớ	-14.11
ha	-14.1135
min	-14.1142
ỉm	-14.1212
heo	-14.1228
ft	-14.1229
ric	-14.1237
▁-16	-14.1241
▁exce	-14.1275
ear	-14.1288
hoát	-14.1304
iếng	-14.1319
▁jet	-14.1359
▁ngặn	-14.1361
▁dona	-14.139
ìu	-14.1403
▁roman	-14.144
ain	-14.1451
▁sẹ	-14.1459
ris	-14.1464
▁142	-14.1466
ege	-14.149
ổn	-14.1511
▁massa	-14.1515
▁loãn	-14.1518
ữa	-14.1519
dj	-14.1521
▁đản	-14.1527
▁prom	-14.1552
hẽ	-14.1557
▁wan	-14.1558
▁blu	-14.1578
ds	-14.1579
rass	-14.1586
ffer	-14.1597
oak	-14.1617
▁disc	-14.1637
▁bĩ	-14.1641
les	-14.1656
ồn	-14.166
▁ston	-14.1671
▁rãn	-14.1675
70	-14.1682
▁sặn	-14.1688
orn	-14.17
if	-14.1714
ete	-14.1715
▁vor	-14.1722
ason	-14.1726
▁surv	-14.1728
▁late	-14.173
▁sue	-14.1733
▁ấ	-14.1742
isa	-14.1758
arry	-14.1764
▁ave	-14.1786
oë	-14.179
▁phầ	-14.1799
xtra	-14.1806
rình	-14.181
we	-14.1824
jo	-14.1825
eep	-14.1847
oach	-14.1851
evi	-14.1863
▁cop	-14.1874
ica	-14.1881
aret	-14.1889
▁ux	-14.1902
siu	-14.1908
▁gal	-14.1909
▁anat	-14.1923
ction	-14.1952
oba	-14.1954
ovi	-14.1971
▁lose	-14.1985
ical	-14.2004
kes	-14.2007
wi	-14.2011
▁vod	-14.2014
▁ngổn	-14.2028
▁meri	-14.203
▁hover	-14.2053
▁gơ	-14.2063
▁103	-14.2066
hửi	-14.2079
att	-14.2083
adi	-14.209
▁isi	-14.2092
▁confiden	-14.2099
▁nhĩn	-14.2104
iña	-14.2116
▁152	-14.2122
ben	-14.2127
▁laz	-14.2129
averci	-14.2138
omer	-14.214
98	-14.2143
gai	-14.2144
▁ero	-14.2145
idan	-14.2145
▁fun	-14.2145
▁alex	-14.2145
▁tol	-14.2151
▁pla	-14.2151
▁ana	-14.2154
▁-11	-14.2158
doro	-14.2159
ừ	-14.2163
ươ	-14.2174
malay	-14.2177
▁gạ	-14.2177
▁lưỡ	-14.2179
leon	-14.218
birkenau	-14.218
manova	-14.218
▁chuố	-14.218
bus	-14.218
head	-14.218
michel	-14.2181
move	-14.2181
present	-14.2181
stone	-14.2181
text	-14.2181
house	-14.2181
▁xìn	-14.2181
vision	-14.2181
shop	-14.2182
time	-14.2182
xí	-14.2182
agor	-14.2182
▁đụ	-14.2183
▁nhọ	-14.2183
chine	-14.2183
shot	-14.2183
vel	-14.2183
bra	-14.2183
▁xoạ	-14.2184
roma	-14.2184
demi	-14.2185
▁beaut	-14.2185
reb	-14.2185
▁bừ	-14.2186
ault	-14.2186
tom	-14.2186
▁seiko	-14.2186
▁trũn	-14.2187
▁nikolazi	-14.2187
▁juli	-14.2187
ghề	-14.2187
▁jun	-14.2187
phim	-14.2187
▁nabuchodonoso	-14.2187
tude	-14.2187
▁account	-14.2187
▁origin	-14.2187
▁colomb	-14.2187
▁moliè	-14.2187
▁celebr	-14.2187
▁perform	-14.2187
trus	-14.2187
▁develop	-14.2187
$	-14.2187
/	-14.2187
currency	-14.2187
ennis	-14.2187
scri	-14.2187
ticita	-14.2187
yakim	-14.2187
ł	-14.2187
م	-14.2187
و	-14.2187
▁-2009	-14.2187
▁1088	-14.2187
▁acoustic	-14.2187
▁adhd	-14.2187
▁again	-14.2187
▁alternative	-14.2187
▁android	-14.2187
▁aristobul	-14.2187
▁attention	-14.2187
▁backstage	-14.2187
▁bangladesh	-14.2187
▁benedit	-14.2187
▁bensetsa	-14.2187
▁boceno	-14.2187
▁briseau	-14.2187
▁bruce	-14.2187
▁brutus	-14.2187
▁buffet	-14.2187
▁clotilde	-14.2187
▁dìệu	-14.2187
▁dờn	-14.2187
▁dợm	-14.2187
▁engineer	-14.2187
▁fawn	-14.2187
▁geek	-14.2187
▁geronimo	-14.2187
▁gomorra	-14.2187
▁guilamet	-14.2187
▁gụi	-14.2187
▁hemisave	-14.2187
▁hempstead	-14.2187
▁hustler	-14.2187
▁interesting	-14.2187
▁jeunet	-14.2187
▁lawrence	-14.2187
▁madiang	-14.2187
▁mafia	-14.2187
▁magnificat	-14.2187
▁mess	-14.2187
▁mhz	-14.2187
▁mreutane	-14.2187
▁nabobolassa	-14.2187
▁okfive	-14.2187
▁perfume	-14.2187
▁sapiens	-14.2187
▁sarreta	-14.2187
▁solution	-14.2187
▁something	-14.2187
▁stanley	-14.2187
▁suleimanova	-14.2187
▁supplier	-14.2187
▁transform	-14.2187
yxen	-14.2187
▁accept	-14.2187
▁nicole	-14.2187
hemiah	-14.2187
в	-14.2187
▁antioqu	-14.2187
▁chargept	-14.2187
▁couple	-14.2187
▁havocif	-14.2187
о	-14.2187
▁assyu	-14.2187
▁consume	-14.2187
▁orade	-14.2187
▁performance	-14.2187
▁webrama	-14.2187
million	-14.2187
▁mouli	-14.2187
▁fadisil	-14.2187
▁flash	-14.2187
▁greatest	-14.2187
▁spotlight	-14.2187
▁alstorm	-14.2187
▁disney	-14.2187
▁fowlow	-14.2187
▁kamuchia	-14.2187
▁luizia	-14.2187
▁depress	-14.2187
▁olly	-14.2187
▁texa	-14.2187
▁essay	-14.2187
▁incent	-14.2187
▁makabe	-14.2187
▁molière	-14.2187
▁pinkcho	-14.2187
▁vadovi	-14.2187
▁seren	-14.2188
ension	-14.2188
▁element	-14.2188
rodi	-14.2188
▁bove	-14.2188
▁street	-14.2188
▁protoc	-14.2188
▁sirri	-14.2188
▁bolen	-14.2188
▁-187	-14.2188
▁question	-14.2188
otif	-14.2188
▁tadeo	-14.2188
▁tools	-14.2188
▁trơ	-14.2188
▁halle	-14.2188
llips	-14.2188
▁1775	-14.2188
▁limber	-14.2188
▁phadish	-14.2188
▁jur	-14.2188
▁factor	-14.2188
▁dexen	-14.2188
▁sacre	-14.2188
burg	-14.2188
▁1888	-14.2188
▁1978	-14.2188
▁watch	-14.2188
rican	-14.2188
▁ulai	-14.2188
▁state	-14.2188
riva	-14.2188
▁involve	-14.2188
▁pauline	-14.2188
▁under	-14.2188
▁scor	-14.2188
ancel	-14.2188
▁elam	-14.2188
▁zik	-14.2188
▁whe	-14.2188
hot	-14.2188
▁suffer	-14.2188
▁tróa	-14.2188
▁oree	-14.2188
▁planet	-14.2188
▁behav	-14.2188
▁1823	-14.2188
▁exper	-14.2188
▁nikolazis	-14.2188
▁plus	-14.2188
▁plu	-14.2189
▁coun	-14.2189
▁huỷ	-14.2189
▁sele	-14.2189
▁rabin	-14.2189
sraen	-14.2189
mone	-14.2189
tterman	-14.2189
moo	-14.2189
mori	-14.2189
▁echa	-14.2189
▁1964	-14.2189
▁pink	-14.2189
▁soviet	-14.2189
▁backup	-14.2189
▁gentle	-14.2189
▁rhy	-14.2189
nosa	-14.2189
esia	-14.2189
▁minước	-14.2189
▁giorn	-14.2189
▁giuse	-14.2189
▁wars	-14.2189
▁ammonia	-14.2189
▁1923	-14.2189
▁geremia	-14.2189
▁khòe	-14.2189
format	-14.2189
▁1962	-14.2189
▁dead	-14.2189
tima	-14.219
blai	-14.219
▁nike	-14.219
▁1854	-14.219
▁approv	-14.219
▁those	-14.219
▁-50	-14.219
▁rousse	-14.219
▁tiberia	-14.219
▁opera	-14.219
▁child	-14.219
yogya	-14.219
▁1880	-14.2191
▁rế	-14.2191
▁zên	-14.2191
▁well	-14.2191
▁noè	-14.2191
▁canác	-14.2191
▁find	-14.2191
▁kali	-14.2191
▁hằn	-14.2191
▁abed	-14.2191
base	-14.2192
▁zay	-14.2192
▁vĩện	-14.2192
fon	-14.2192
ujit	-14.2192
▁yoh	-14.2192
▁navi	-14.2192
▁fab	-14.2192
▁mash	-14.2192
▁napol	-14.2192
wt	-14.2192
▁jola	-14.2193
sera	-14.2193
▁maka	-14.2193
▁gẻ	-14.2193
▁communi	-14.2193
ulp	-14.2193
▁moli	-14.2193
▁rằn	-14.2193
▁kyr	-14.2193
tox	-14.2193
▁hatti	-14.2193
▁iza	-14.2194
▁gở	-14.2194
▁-26	-14.2194
▁soul	-14.2194
eux	-14.2194
▁dõm	-14.2194
dor	-14.2194
▁-21	-14.2195
▁fire	-14.2195
▁noah	-14.2195
▁birkenau	-14.2195
tane	-14.2195
▁1977	-14.2195
▁options	-14.2195
▁manova	-14.2195
▁demi	-14.2195
▁jeh	-14.2196
▁subt	-14.2196
pacit	-14.2196
thai	-14.2196
▁xè	-14.2196
▁vivo	-14.2196
▁toys	-14.2196
▁1231	-14.2197
▁billy	-14.2197
vor	-14.2197
▁hatt	-14.2197
lett	-14.2198
▁steven	-14.2198
imen	-14.2198
▁inno	-14.2198
▁eye	-14.2198
▁queen	-14.2198
▁sci	-14.2198
▁anton	-14.2198
▁chuộm	-14.2199
▁-23	-14.2199
▁ngúa	-14.2199
▁suý	-14.2199
▁trạc	-14.2199
▁suri	-14.2199
phant	-14.2199
▁basso	-14.2199
▁monte	-14.22
onald	-14.22
▁boys	-14.22
▁jobs	-14.22
▁-55	-14.2201
chắc	-14.2202
▁dex	-14.2202
vac	-14.2202
▁ove	-14.2202
▁sado	-14.2203
part	-14.2203
▁savi	-14.2204
agile	-14.2204
▁haw	-14.2204
▁dệ	-14.2204
▁azu	-14.2205
▁yudah	-14.2205
▁reh	-14.2205
▁jt	-14.2205
▁lắn	-14.2205
▁true	-14.2206
▁thuộm	-14.2206
▁khuâm	-14.2206
▁ruộn	-14.2206
▁hipp	-14.2207
▁alo	-14.2208
▁nhíu	-14.2208
eja	-14.2208
nghi	-14.2208
▁trỏng	-14.2208
▁compl	-14.2209
▁nhụy	-14.2209
▁xoe	-14.2209
▁fully	-14.2209
▁-90	-14.2209
▁ame	-14.221
▁salom	-14.2211
▁cry	-14.2211
per	-14.2212
chúng	-14.2212
▁chess	-14.2212
▁pit	-14.2213
▁góm	-14.2214
▁hẻo	-14.2214
▁dỏi	-14.2214
▁ràn	-14.2214
▁khuếp	-14.2215
ace	-14.2215
▁tròàng	-14.2216
lish	-14.2217
lau	-14.2217
▁sáp	-14.2218
▁bĩa	-14.2218
▁mary	-14.2218
▁trô	-14.2219
▁rose	-14.2219
nakho	-14.222
dang	-14.222
sala	-14.222
aux	-14.222
ries	-14.222
▁lỏn	-14.2221
gia	-14.2221
zio	-14.2222
▁rive	-14.2222
▁lùm	-14.2224
▁leone	-14.2225
▁xáu	-14.2226
▁news	-14.2227
▁ngẩu	-14.2227
▁beret	-14.2229
lation	-14.223
▁oam	-14.223
▁kềm	-14.223
▁ore	-14.223
subi	-14.2234
ucker	-14.2234
▁soup	-14.2236
kha	-14.2238
▁grad	-14.2238
▁id	-14.2239
vang	-14.224
▁tuét	-14.2246
▁isa	-14.2247
ottom	-14.225
▁apa	-14.225
▁erodi	-14.2253
▁bed	-14.2254
▁rakha	-14.2255
▁ghiết	-14.2256
▁bẫn	-14.2256
▁324	-14.2261
stour	-14.2261
ument	-14.2262
▁got	-14.2262
▁adi	-14.2262
tôi	-14.2263
prime	-14.2263
du	-14.2263
tail	-14.2269
mium	-14.2269
sang	-14.227
▁leona	-14.227
low	-14.2271
▁trổng	-14.2274
▁engl	-14.2274
▁rẻo	-14.2275
dential	-14.2276
▁meg	-14.2278
▁buối	-14.2281
▁ance	-14.2283
ink	-14.2285
take	-14.2289
281	-14.229
▁mồn	-14.229
piece	-14.2291
▁ada	-14.2294
oppa	-14.2296
▁ngơm	-14.2299
▁structur	-14.23
▁vene	-14.2308
▁lãn	-14.2308
▁sik	-14.2319
ffect	-14.2322
▁takes	-14.2327
▁cỡn	-14.2328
▁fac	-14.2335
▁mụt	-14.2336
pend	-14.2336
trong	-14.2336
142	-14.2337
▁mổn	-14.2343
▁shap	-14.2347
eer	-14.2347
rip	-14.2349
▁shat	-14.2351
sof	-14.2356
▁dĩu	-14.2363
ession	-14.2369
▁tren	-14.2371
▁eli	-14.238
▁havasu	-14.2383
▁ngụn	-14.2395
gu	-14.2395
older	-14.2396
ressive	-14.24
▁sofi	-14.24
▁aus	-14.2401
▁blackb	-14.2404
iểu	-14.2415
▁cún	-14.2419
▁què	-14.2419
▁matthe	-14.242
▁happ	-14.242
tha	-14.2424
ir	-14.2443
▁remi	-14.2446
▁tama	-14.2447
espe	-14.2453
uyện	-14.2462
56	-14.2464
▁wait	-14.2466
▁tro	-14.2467
ark	-14.2469
its	-14.2473
▁tabu	-14.2481
▁thé	-14.25
▁tụn	-14.2503
usta	-14.2504
ani	-14.2512
hoo	-14.2513
▁yun	-14.2514
hat	-14.2517
òng	-14.2522
▁table	-14.2541
▁astor	-14.2542
▁mat	-14.2544
stric	-14.2566
siko	-14.2583
▁whi	-14.2588
97	-14.2589
▁selfi	-14.2596
ë	-14.2601
ntic	-14.2602
elber	-14.2607
26	-14.2629
ãnh	-14.265
▁rạ	-14.2651
▁lama	-14.2663
hín	-14.2673
▁mas	-14.2684
▁rog	-14.2693
olic	-14.2694
hóp	-14.2696
erd	-14.2698
gay	-14.271
mind	-14.2722
uber	-14.2723
▁cambo	-14.2729
▁láu	-14.2741
hĩ	-14.275
yste	-14.2754
abin	-14.2763
uyền	-14.2778
▁chant	-14.2793
ambros	-14.2804
ndy	-14.2809
▁nhán	-14.2825
▁cens	-14.284
▁asu	-14.2848
ovie	-14.2852
hòe	-14.2863
▁everg	-14.2876
khi	-14.288
sul	-14.2891
▁raf	-14.29
hói	-14.2903
▁din	-14.2904
▁wood	-14.291
ảng	-14.2913
spora	-14.2927
100	-14.2974
▁sez	-14.2984
lly	-14.301
ava	-14.3015
xyz	-14.3016
ji	-14.303
904	-14.3038
achy	-14.3045
▁obs	-14.3048
▁ina	-14.3053
qua	-14.3067
onne	-14.3083
75	-14.3109
tv	-14.3118
craft	-14.3118
▁ag	-14.313
dz	-14.3147
otion	-14.3147
94	-14.3155
▁aid	-14.3187
ets	-14.3208
▁-164	-14.3241
▁hege	-14.3249
▁rẹ	-14.3253
etter	-14.327
rmen	-14.3275
▁162	-14.3313
tte	-14.3318
▁invest	-14.3321
cute	-14.3343
27	-14.3348
ành	-14.3351
rey	-14.3354
oạt	-14.3357
yo	-14.336
iệt	-14.3384
▁-188	-14.3402
ette	-14.3416
▁khiễn	-14.3421
bor	-14.3421
▁bram	-14.3426
inz	-14.3439
eas	-14.3441
stos	-14.345
ose	-14.3468
▁khui	-14.347
iso	-14.3541
starter	-14.3566
euro	-14.3619
awa	-14.364
▁tiktoker	-14.3642
▁wen	-14.3648
▁per	-14.3667
▁đán	-14.3672
handel	-14.3686
ense	-14.3697
▁hản	-14.3728
bright	-14.3738
▁-13	-14.375
zer	-14.377
▁,0	-14.3798
nhi	-14.3803
lose	-14.3828
ample	-14.3828
▁contra	-14.3829
▁201	-14.3847
ypt	-14.3869
▁ski	-14.3875
alama	-14.3955
ỏng	-14.3956
un	-14.3994
▁nú	-14.4001
63	-14.4017
rive	-14.4023
14	-14.4038
ll	-14.4049
▁yah	-14.4055
hiệu	-14.407
▁kẹ	-14.4075
ok	-14.4076
▁fila	-14.41
ike	-14.4114
▁bín	-14.4121
ezo	-14.4131
▁vers	-14.415
eak	-14.417
▁fant	-14.4172
ruyền	-14.4227
refer	-14.4228
▁thịn	-14.4255
lai	-14.4261
▁ya	-14.4281
▁sala	-14.4297
elie	-14.4324
▁183	-14.436
▁flora	-14.4381
ol	-14.4391
oanh	-14.4409
▁lạn	-14.4432
▁wat	-14.4452
itor	-14.4453
type	-14.4471
gèn	-14.4475
▁geng	-14.4519
▁tuỳ	-14.4523
illy	-14.4556
ểm	-14.4565
eed	-14.458
yer	-14.4582
▁ayca	-14.4582
vie	-14.4588
▁follower	-14.4649
▁gonz	-14.4653
gover	-14.4697
82	-14.4717
▁mariam	-14.4782
ew	-14.4879
utero	-14.4902
oshua	-14.4964
dage	-14.5017
one	-14.5023
▁nhớp	-14.5029
nder	-14.5074
essa	-14.5089
oan	-14.5113
▁loà	-14.513
jit	-14.5198
▁int	-14.523
ixa	-14.5255
▁đỉ	-14.5283
uz	-14.5288
ém	-14.5322
▁comma	-14.5328
viso	-14.5333
▁hor	-14.5359
sho	-14.5364
▁jav	-14.5381
nda	-14.5409
mi	-14.541
▁lazar	-14.5441
ant	-14.546
uồm	-14.5475
pate	-14.5547
isc	-14.5551
iz	-14.5551
▁sú	-14.5564
lit	-14.5585
omo	-14.5591
hick	-14.5615
ula	-14.5629
▁mư	-14.5654
ôi	-14.5656
ebo	-14.5661
▁trố	-14.5703
pora	-14.5705
▁bart	-14.5721
▁havers	-14.5725
▁havasi	-14.5733
▁gare	-14.5763
ựng	-14.5775
llian	-14.58
ash	-14.5829
▁chilli	-14.586
asse	-14.5861
hiệt	-14.5948
iza	-14.5951
▁pur	-14.5959
▁trượn	-14.5966
ijah	-14.5996
▁wis	-14.6007
▁ass	-14.606
onzo	-14.6062
ip	-14.6068
▁gra	-14.6069
oc	-14.6079
▁rec	-14.6198
▁att	-14.6223
chili	-14.6224
▁bet	-14.6282
▁-122	-14.6314
nic	-14.6337
ncer	-14.6375
swing	-14.6407
as	-14.6449
▁all	-14.6484
sif	-14.6526
ria	-14.6549
▁nhuệ	-14.6564
akse	-14.6575
eva	-14.6616
yana	-14.6625
▁inse	-14.6697
▁dé	-14.6734
dsk	-14.6759
angk	-14.6766
gẹt	-14.6851
ego	-14.6873
iff	-14.6887
iva	-14.691
▁benl	-14.6929
ộc	-14.6962
íu	-14.6991
▁sec	-14.7016
uế	-14.7022
200	-14.7049
▁mis	-14.7061
▁mode	-14.7089
úy	-14.709
hể	-14.7093
▁ivanu	-14.7098
sign	-14.7105
ova	-14.7145
rista	-14.7146
ssion	-14.7161
òa	-14.7169
▁marti	-14.7247
agement	-14.7273
natan	-14.7326
phi	-14.7333
48	-14.738
▁fl	-14.7419
▁gat	-14.7492
even	-14.7556
▁pain	-14.7638
▁bấ	-14.7755
rick	-14.7798
esta	-14.7798
▁roll	-14.7807
cab	-14.7816
igon	-14.7834
ũa	-14.7836
▁ní	-14.7838
oda	-14.7856
seva	-14.7874
▁bod	-14.7883
laim	-14.7886
cia	-14.7908
ge	-14.7942
▁đừ	-14.7982
ker	-14.8064
▁flor	-14.8074
ara	-14.8099
jah	-14.8115
▁-196	-14.8139
lala	-14.8208
▁bou	-14.8221
log	-14.823
▁cuộ	-14.8237
tr	-14.8241
suk	-14.8297
▁gras	-14.8405
▁gold	-14.8423
ịn	-14.8526
▁yu	-14.855
rama	-14.8587
▁199	-14.8591
▁moto	-14.8602
ature	-14.864
cd	-14.8721
ado	-14.8763
ày	-14.8766
anger	-14.877
39	-14.8779
ando	-14.8785
lae	-14.8812
ặn	-14.8822
lent	-14.8836
học	-14.886
hặng	-14.8923
▁cente	-14.8968
▁fe	-14.897
gọi	-14.8985
hài	-14.9016
right	-14.902
rốn	-14.9032
▁onl	-14.9033
▁vư	-14.9043
nô	-14.9076
ient	-14.9096
nolo	-14.9096
▁cạ	-14.9097
hieve	-14.9106
ean	-14.9113
gar	-14.9168
ía	-14.917
▁east	-14.9187
pisode	-14.9198
▁has	-14.9205
oàn	-14.921
▁har	-14.9221
▁eur	-14.9286
▁nguệ	-14.9341
mu	-14.9367
▁huê	-14.9372
▁gou	-14.9431
▁kit	-14.9454
ướp	-14.9527
song	-14.9561
rence	-14.9608
kri	-14.9653
▁diền	-14.9714
lép	-14.9717
ợi	-14.9732
▁ngù	-14.9737
▁inves	-14.9747
dak	-14.9778
▁sea	-14.9831
▁fer	-14.9835
duanh	-14.9844
▁songwrit	-14.9858
rích	-14.9904
ipate	-14.9905
kh	-14.9906
bon	-14.9912
minh	-14.992
▁yos	-14.9921
▁sal	-14.9939
▁poi	-14.996
▁oco	-14.999
ask	-14.999
her	-15.0001
▁165	-15.0043
▁reu	-15.0051
pat	-15.0056
ati	-15.0076
orde	-15.0078
ust	-15.0109
ade	-15.0118
raft	-15.0121
▁đấ	-15.0142
▁khuy	-15.0161
▁rặn	-15.018
ership	-15.0203
▁bentech	-15.0204
▁vâ	-15.0208
ause	-15.0268
▁integr	-15.029
▁vlogg	-15.0306
▁shoppe	-15.0321
lic	-15.0328
▁spec	-15.0342
hiện	-15.0342
▁.90	-15.0353
ởi	-15.0356
ũng	-15.0365
rom	-15.0413
▁cove	-15.0447
163	-15.0454
aram	-15.0454
uyễn	-15.0498
▁berna	-15.0502
▁gro	-15.0538
▁mế	-15.055
▁abu	-15.0553
▁trướ	-15.0583
bri	-15.0606
mã	-15.0616
òi	-15.0633
gate	-15.0636
yz	-15.0638
il	-15.0663
lon	-15.0709
fet	-15.0744
ambro	-15.0762
▁ge	-15.0797
▁mad	-15.0797
las	-15.0813
sien	-15.0821
aga	-15.0822
dian	-15.0826
cker	-15.084
ale	-15.0849
asm	-15.0856
dge	-15.0883
alenco	-15.0908
uấn	-15.0926
41	-15.0942
chu	-15.0961
enger	-15.0968
pre	-15.0985
▁yab	-15.0986
heri	-15.0997
ariz	-15.1002
▁hava	-15.1045
walk	-15.1061
▁marte	-15.1082
èm	-15.1084
ld	-15.1085
▁planne	-15.1098
bour	-15.1106
ippi	-15.1137
po	-15.1154
▁sul	-15.1164
hời	-15.1172
▁veg	-15.1198
▁ứ	-15.1218
alis	-15.1221
▁walk	-15.1233
▁181	-15.1247
▁oli	-15.1249
▁dỉn	-15.125
hay	-15.1288
▁minim	-15.1298
ụn	-15.1302
▁phé	-15.1346
sap	-15.1364
▁techn	-15.1369
pha	-15.1373
ieve	-15.1376
gress	-15.1393
▁presen	-15.1399
ran	-15.1422
ôm	-15.1433
▁179	-15.144
▁nic	-15.1454
sé	-15.1457
▁met	-15.1476
ub	-15.1483
▁insta	-15.1488
ende	-15.1492
vent	-15.1492
▁cli	-15.1502
caria	-15.1508
ee	-15.1515
▁144	-15.1533
õm	-15.154
asco	-15.154
▁wai	-15.1543
nzi	-15.1563
▁rece	-15.1565
spar	-15.1583
egen	-15.1598
▁155	-15.1598
▁deut	-15.1605
▁uki	-15.161
any	-15.1634
▁fansi	-15.1641
ikki	-15.1643
lin	-15.1643
ủa	-15.1646
di	-15.1651
our	-15.1672
▁fall	-15.1676
▁exc	-15.1679
ree	-15.1689
▁hẳ	-15.1691
chel	-15.1711
▁fr	-15.1715
aulo	-15.1715
yst	-15.1727
▁edi	-15.173
▁interi	-15.1737
▁yisus	-15.1748
▁xụn	-15.1752
dê	-15.1755
sio	-15.1764
arian	-15.1771
sal	-15.1791
▁contro	-15.18
ista	-15.1827
▁stab	-15.1839
dica	-15.1849
affe	-15.1863
dori	-15.1864
▁labou	-15.1885
▁rel	-15.189
▁câ	-15.1903
▁struc	-15.1906
▁scen	-15.1935
hong	-15.1955
hoải	-15.1955
bles	-15.1968
▁amon	-15.198
anto	-15.1985
ệnh	-15.1989
▁produ	-15.2006
ople	-15.2009
▁messi	-15.2013
ẻn	-15.2014
pri	-15.2017
alom	-15.2018
alon	-15.2031
▁gara	-15.2037
▁mos	-15.204
ival	-15.2042
▁hẻn	-15.2055
▁138	-15.2071
▁tuar	-15.2081
▁abs	-15.2093
ompe	-15.2097
▁hel	-15.2103
prata	-15.2107
ustin	-15.2113
kut	-15.2121
ũn	-15.2122
▁imp	-15.2126
ư	-15.2129
olo	-15.2135
ú	-15.2139
hịnh	-15.2141
round	-15.2145
▁giư	-15.2151
osal	-15.2153
andre	-15.2153
xten	-15.2157
ự	-15.2159
hịt	-15.2166
oả	-15.217
sive	-15.2171
mentary	-15.2171
kie	-15.2172
đô	-15.2174
hả	-15.2174
bbit	-15.2175
hứ	-15.2175
ella	-15.2175
lywood	-15.2178
health	-15.2178
76	-15.2178
comme	-15.2178
smo	-15.2179
cente	-15.2179
▁giọ	-15.2179
bassa	-15.2179
antin	-15.218
rù	-15.218
duce	-15.218
rousse	-15.218
well	-15.218
profi	-15.218
đơ	-15.2181
help	-15.2181
kali	-15.2181
operat	-15.2181
whi	-15.2181
manage	-15.2181
ephra	-15.2181
founder	-15.2181
▁liê	-15.2181
jesu	-15.2181
credit	-15.2181
valentine	-15.2181
đó	-15.2181
direct	-15.2181
expect	-15.2181
girl	-15.2181
không	-15.2182
normal	-15.2182
1985	-15.2182
branding	-15.2182
samari	-15.2182
virus	-15.2182
copy	-15.2182
philip	-15.2182
connect	-15.2182
happy	-15.2182
gặp	-15.2182
-	-15.2182
đăng	-15.2182
đốc	-15.2182
đa	-15.2182
đà	-15.2182
love	-15.2182
game	-15.2182
khoe	-15.2182
flow	-15.2182
eris	-15.2182
sinai	-15.2182
down	-15.2182
jack	-15.2182
uji	-15.2182
face	-15.2182
mmonia	-15.2182
press	-15.2183
host	-15.2183
nabu	-15.2183
ườn	-15.2183
giáo	-15.2183
lock	-15.2184
nadette	-15.2184
▁zha	-15.2184
polit	-15.2184
phát	-15.2184
▁techno	-15.2184
▁ammoni	-15.2184
▁credi	-15.2185
lạp	-15.2185
back	-15.2185
▁nabok	-15.2185
chain	-15.2185
▁therap	-15.2185
onfirm	-15.2185
wid	-15.2185
oncept	-15.2185
rơ	-15.2185
volve	-15.2186
rov	-15.2186
cũng	-15.2186
oursel	-15.2186
▁firew	-15.2186
▁tiber	-15.2186
▁gồ	-15.2186
▁manag	-15.2186
của	-15.2186
amayana	-15.2186
▁chĩn	-15.2187
▁giú	-15.2187
▁bloc	-15.2187
buchodonosor	-15.2187
adisil	-15.2187
▁profess	-15.2187
gare	-15.2187
▁jerem	-15.2187
buck	-15.2187
shalem	-15.2187
▁entertain	-15.2187
▁havoci	-15.2187
ject	-15.2187
spir	-15.2187
+	-15.2187
chill	-15.2187
jeune	-15.2187
khov	-15.2187
ranath	-15.2187
ä	-15.2187
å	-15.2187
ć	-15.2187
ı	-15.2187
œ	-15.2187
ś	-15.2187
ş	-15.2187
š	-15.2187
ι	-15.2187
а	-15.2187
е	-15.2187
и	-15.2187
н	-15.2187
п	-15.2187
ц	-15.2187
ш	-15.2187
ֵ	-15.2187
ּ	-15.2187
י	-15.2187
ש	-15.2187
ि	-15.2187
▁magnifi	-15.2187
ル	-15.2187
ー	-15.2187
까	-15.2187
라	-15.2187
말	-15.2187
밝	-15.2187
씀	-15.2187
용	-15.2187
지	-15.2187
키	-15.2187
혔	-15.2187
혼	-15.2187
camp	-15.2187
▁jud	-15.2187
▁negati	-15.2187
rushalem	-15.2187
▁ammo	-15.2187
▁ezeki	-15.2187
ucci	-15.2187
▁auth	-15.2187
밪	-15.2187
т	-15.2188
bur	-15.2188
namic	-15.2188
repre	-15.2188
▁rebec	-15.2188
▁nabucho	-15.2188
▁lừ	-15.2188
donosa	-15.2188
ndexe	-15.2188
▁produce	-15.2188
staff	-15.2188
fati	-15.2188
nosor	-15.2188
liko	-15.2188
tư	-15.2188
vince	-15.2188
són	-15.2188
salomon	-15.2188
izal	-15.2188
urse	-15.2188
canis	-15.2188
mark	-15.2188
sket	-15.2189
ghè	-15.2189
▁feed	-15.2189
starte	-15.2189
llow	-15.2189
rology	-15.2189
rà	-15.2189
adel	-15.2189
▁info	-15.2189
▁nabo	-15.2189
▁agr	-15.2189
▁nabuko	-15.2189
anis	-15.2189
▁fram	-15.219
lance	-15.219
▁colle	-15.219
đông	-15.219
visu	-15.219
sira	-15.219
▁pack	-15.219
ère	-15.219
▁naboko	-15.219
464	-15.219
▁destin	-15.2191
enze	-15.2191
▁pub	-15.2191
▁harv	-15.2191
dào	-15.2191
leona	-15.2191
andora	-15.2191
▁scan	-15.2191
▁fal	-15.2191
▁thẳn	-15.2191
stou	-15.2192
max	-15.2192
ppe	-15.2192
ball	-15.2192
putin	-15.2192
▁passion	-15.2192
▁invo	-15.2192
beth	-15.2192
xpe	-15.2192
chop	-15.2192
▁nikolaic	-15.2192
ưỡn	-15.2192
▁salon	-15.2193
quest	-15.2193
jana	-15.2193
roce	-15.2193
bô	-15.2193
▁chuộn	-15.2193
sual	-15.2193
lệ	-15.2193
jor	-15.2193
ology	-15.2193
▁joan	-15.2193
▁gerem	-15.2193
việt	-15.2194
raham	-15.2194
lob	-15.2194
▁marc	-15.2194
kind	-15.2194
ience	-15.2195
▁nồ	-15.2195
live	-15.2195
roton	-15.2195
▁neuro	-15.2196
mas	-15.2196
▁đẵn	-15.2196
af	-15.2196
mbers	-15.2196
lối	-15.2196
zone	-15.2196
ollywood	-15.2197
▁health	-15.2197
isio	-15.2197
▁đăn	-15.2197
rule	-15.2197
kê	-15.2197
bé	-15.2197
▁hobb	-15.2198
cof	-15.2198
covi	-15.2198
▁nhõ	-15.2198
thái	-15.2199
estion	-15.22
jan	-15.2201
pur	-15.2201
▁gault	-15.2201
vice	-15.2201
tagor	-15.2202
dé	-15.2202
rush	-15.2202
roduce	-15.2202
nex	-15.2203
▁vẳn	-15.2203
▁ej	-15.2203
fold	-15.2203
▁răn	-15.2203
▁khở	-15.2203
bran	-15.2204
▁tibe	-15.2204
ressi	-15.2204
plo	-15.2204
key	-15.2204
vira	-15.2204
▁coup	-15.2205
▁shar	-15.2205
▁yur	-15.2205
nhà	-15.2205
bắc	-15.2205
rồng	-15.2206
▁bol	-15.2206
▁vinc	-15.2206
▁fri	-15.2206
gage	-15.2207
181	-15.2207
raha	-15.2207
isse	-15.2208
bent	-15.2208
chỉ	-15.2208
mbra	-15.2208
ibis	-15.2208
chat	-15.2208
soy	-15.2209
ushe	-15.2209
dích	-15.221
cana	-15.221
amin	-15.221
bed	-15.221
sài	-15.2211
stor	-15.2211
norm	-15.2212
nếu	-15.2212
ū	-16.5729
&	-16.573
ỵ	-16.5731
ñ	-16.5732
,	-16.5733
%	-16.5734
ẵ	-16.5735
.	-16.5736
ẳ	-16.5737
ẩ	-16.5738
ẫ	-16.5739
ằ	-16.574
ặ	-16.5741
ù	-16.5742
ò	-16.5743
ắ	-16.5744
ă	-16.5745
ứ	-16.5746
ầ	-16.5747
ọ	-16.5748
ậ	-16.5749
ố	-16.575
â	-16.5751
ạ	-16.5752
ộ	-16.5753
ả	-16.5754
ấ	-16.5755
đ	-16.5756
